/* Generated by Edge Impulse
 *
 * Permission is hereby granted, free of charge, to any person obtaining a copy
 * of this software and associated documentation files (the "Software"), to deal
 * in the Software without restriction, including without limitation the rights
 * to use, copy, modify, merge, publish, distribute, sublicense, and/or sell
 * copies of the Software, and to permit persons to whom the Software is
 * furnished to do so, subject to the following conditions:
 *
 * The above copyright notice and this permission notice shall be included in
 * all copies or substantial portions of the Software.
 *
 * THE SOFTWARE IS PROVIDED "AS IS", WITHOUT WARRANTY OF ANY KIND, EXPRESS OR
 * IMPLIED, INCLUDING BUT NOT LIMITED TO THE WARRANTIES OF MERCHANTABILITY,
 * FITNESS FOR A PARTICULAR PURPOSE AND NONINFRINGEMENT. IN NO EVENT SHALL THE
 * AUTHORS OR COPYRIGHT HOLDERS BE LIABLE FOR ANY CLAIM, DAMAGES OR OTHER
 * LIABILITY, WHETHER IN AN ACTION OF CONTRACT, TORT OR OTHERWISE, ARISING FROM,
 * OUT OF OR IN CONNECTION WITH THE SOFTWARE OR THE USE OR OTHER DEALINGS IN THE
 * SOFTWARE.
 */

#ifndef _EI_CLASSIFIER_TFLITE_TRAINED_H_
#define _EI_CLASSIFIER_TFLITE_TRAINED_H_

#define EI_CLASSIFIER_TFLITE_ARENA_SIZE     5824

#if defined __GNUC__
#define ALIGN(X) __attribute__((aligned(X)))
#elif defined _MSC_VER
#define ALIGN(X) __declspec(align(X))
#elif defined __TASKING__
#define ALIGN(X) __align(X)
#else
#define ALIGN(X)
#endif

namespace namespace_12_10 {

  ALIGN(16) const unsigned char trained_tflite[] = {
    0x20, 0x00, 0x00, 0x00, 0x54, 0x46, 0x4c, 0x33, 0x00, 0x00, 0x00, 0x00,
    0x14, 0x00, 0x20, 0x00, 0x1c, 0x00, 0x18, 0x00, 0x14, 0x00, 0x10, 0x00,
    0x0c, 0x00, 0x00, 0x00, 0x08, 0x00, 0x04, 0x00, 0x14, 0x00, 0x00, 0x00,
    0x1c, 0x00, 0x00, 0x00, 0x8c, 0x00, 0x00, 0x00, 0xbc, 0x00, 0x00, 0x00,
    0xfc, 0x06, 0x00, 0x00, 0x0c, 0x07, 0x00, 0x00, 0x24, 0x16, 0x00, 0x00,
    0x03, 0x00, 0x00, 0x00, 0x01, 0x00, 0x00, 0x00, 0x10, 0x00, 0x00, 0x00,
    0x00, 0x00, 0x0a, 0x00, 0x10, 0x00, 0x0c, 0x00, 0x08, 0x00, 0x04, 0x00,
    0x0a, 0x00, 0x00, 0x00, 0x0c, 0x00, 0x00, 0x00, 0x1c, 0x00, 0x00, 0x00,
    0x3c, 0x00, 0x00, 0x00, 0x0f, 0x00, 0x00, 0x00, 0x73, 0x65, 0x72, 0x76,
    0x69, 0x6e, 0x67, 0x5f, 0x64, 0x65, 0x66, 0x61, 0x75, 0x6c, 0x74, 0x00,
    0x01, 0x00, 0x00, 0x00, 0x04, 0x00, 0x00, 0x00, 0xc4, 0xff, 0xff, 0xff,
    0x16, 0x00, 0x00, 0x00, 0x04, 0x00, 0x00, 0x00, 0x08, 0x00, 0x00, 0x00,
    0x6f, 0x75, 0x74, 0x70, 0x75, 0x74, 0x5f, 0x30, 0x00, 0x00, 0x00, 0x00,
    0x01, 0x00, 0x00, 0x00, 0x04, 0x00, 0x00, 0x00, 0xde, 0xf8, 0xff, 0xff,
    0x04, 0x00, 0x00, 0x00, 0x01, 0x00, 0x00, 0x00, 0x78, 0x00, 0x00, 0x00,
    0x01, 0x00, 0x00, 0x00, 0x0c, 0x00, 0x00, 0x00, 0x08, 0x00, 0x0c, 0x00,
    0x08, 0x00, 0x04, 0x00, 0x08, 0x00, 0x00, 0x00, 0x18, 0x00, 0x00, 0x00,
    0x04, 0x00, 0x00, 0x00, 0x13, 0x00, 0x00, 0x00, 0x6d, 0x69, 0x6e, 0x5f,
    0x72, 0x75, 0x6e, 0x74, 0x69, 0x6d, 0x65, 0x5f, 0x76, 0x65, 0x72, 0x73,
    0x69, 0x6f, 0x6e, 0x00, 0x19, 0x00, 0x00, 0x00, 0x3c, 0x06, 0x00, 0x00,
    0x34, 0x06, 0x00, 0x00, 0x14, 0x06, 0x00, 0x00, 0xf4, 0x05, 0x00, 0x00,
    0xd4, 0x05, 0x00, 0x00, 0xb4, 0x05, 0x00, 0x00, 0x9c, 0x05, 0x00, 0x00,
    0x54, 0x04, 0x00, 0x00, 0x24, 0x04, 0x00, 0x00, 0x94, 0x02, 0x00, 0x00,
    0x44, 0x02, 0x00, 0x00, 0x94, 0x00, 0x00, 0x00, 0x7c, 0x00, 0x00, 0x00,
    0x74, 0x00, 0x00, 0x00, 0x6c, 0x00, 0x00, 0x00, 0x64, 0x00, 0x00, 0x00,
    0x5c, 0x00, 0x00, 0x00, 0x54, 0x00, 0x00, 0x00, 0x4c, 0x00, 0x00, 0x00,
    0x44, 0x00, 0x00, 0x00, 0x3c, 0x00, 0x00, 0x00, 0x34, 0x00, 0x00, 0x00,
    0x2c, 0x00, 0x00, 0x00, 0x24, 0x00, 0x00, 0x00, 0x04, 0x00, 0x00, 0x00,
    0x8a, 0xf9, 0xff, 0xff, 0x04, 0x00, 0x00, 0x00, 0x10, 0x00, 0x00, 0x00,
    0x31, 0x2e, 0x31, 0x34, 0x2e, 0x30, 0x00, 0x00, 0x00, 0x00, 0x00, 0x00,
    0x00, 0x00, 0x00, 0x00, 0xc0, 0xeb, 0xff, 0xff, 0xc4, 0xeb, 0xff, 0xff,
    0xc8, 0xeb, 0xff, 0xff, 0xcc, 0xeb, 0xff, 0xff, 0xd0, 0xeb, 0xff, 0xff,
    0xd4, 0xeb, 0xff, 0xff, 0xd8, 0xeb, 0xff, 0xff, 0xdc, 0xeb, 0xff, 0xff,
    0xe0, 0xeb, 0xff, 0xff, 0xe4, 0xeb, 0xff, 0xff, 0xe8, 0xeb, 0xff, 0xff,
    0xd2, 0xf9, 0xff, 0xff, 0x04, 0x00, 0x00, 0x00, 0x08, 0x00, 0x00, 0x00,
    0x0c, 0xf4, 0xff, 0xff, 0xf4, 0x0b, 0x00, 0x00, 0xe6, 0xf9, 0xff, 0xff,
    0x04, 0x00, 0x00, 0x00, 0xa0, 0x01, 0x00, 0x00, 0x41, 0xf1, 0x16, 0xd0,
    0x32, 0xfe, 0xe6, 0x2b, 0xf2, 0xea, 0xbb, 0x46, 0xc6, 0x31, 0x0f, 0xf7,
    0x1c, 0x0b, 0x1f, 0xe1, 0x29, 0x41, 0x28, 0x2c, 0xb5, 0xd6, 0x2f, 0x12,
    0xf9, 0x3a, 0x31, 0x3a, 0x43, 0x3d, 0x64, 0xdd, 0x09, 0x24, 0x51, 0x2d,
    0xa9, 0xf1, 0xdd, 0xf7, 0xb6, 0xe6, 0x4f, 0x1d, 0xdc, 0x0b, 0x59, 0x0f,
    0x15, 0x4b, 0xf0, 0x4d, 0xcd, 0xaf, 0x14, 0x16, 0xab, 0x16, 0x37, 0x6a,
    0x15, 0x47, 0xda, 0xcb, 0x27, 0xfe, 0xfe, 0x20, 0xe4, 0xaf, 0xb6, 0x46,
    0xe9, 0x64, 0xf8, 0xb6, 0x07, 0x22, 0x5d, 0xd5, 0xfc, 0x29, 0x26, 0x23,
    0xd4, 0xd0, 0xfa, 0xb5, 0xc8, 0x3d, 0x4a, 0x07, 0x5f, 0x4d, 0x7a, 0xe7,
    0x1b, 0x18, 0x69, 0xca, 0xb3, 0xef, 0xf0, 0x51, 0x9a, 0x3c, 0xf2, 0x0f,
    0x09, 0x15, 0x28, 0xe2, 0x12, 0x18, 0x00, 0x6f, 0x20, 0xbe, 0xde, 0x22,
    0xd8, 0x1c, 0x62, 0x42, 0x57, 0x17, 0x36, 0xff, 0x45, 0x39, 0x38, 0x4f,
    0xff, 0xdf, 0xee, 0xf2, 0xe4, 0x2d, 0xec, 0x05, 0xfc, 0x0e, 0x55, 0x09,
    0x39, 0x10, 0xd2, 0x08, 0xc8, 0xcb, 0x0d, 0x34, 0xcb, 0x2f, 0x56, 0xfc,
    0xfe, 0x4d, 0x1e, 0x18, 0x0e, 0x2d, 0xf0, 0x42, 0xdb, 0xb0, 0xff, 0x31,
    0xa2, 0x5e, 0x19, 0xc8, 0x7e, 0x54, 0x04, 0xd6, 0xe2, 0x25, 0x2a, 0x1a,
    0xb6, 0xf3, 0xf5, 0x41, 0xc4, 0x4e, 0x16, 0xe4, 0xd7, 0x2b, 0xff, 0x0d,
    0x57, 0x06, 0x42, 0x1a, 0x03, 0xea, 0xe0, 0x36, 0xed, 0x28, 0x2e, 0x18,
    0xce, 0xab, 0xe0, 0x2c, 0xfc, 0xfb, 0x4a, 0xf5, 0x1b, 0x29, 0x48, 0xc9,
    0x38, 0xd3, 0xde, 0xd2, 0x0a, 0xd2, 0x1e, 0x26, 0xbd, 0xd0, 0xba, 0xc4,
    0x01, 0x0d, 0x2e, 0xcc, 0x11, 0xde, 0xe1, 0x05, 0xb7, 0xce, 0xa5, 0xf8,
    0xfc, 0xa3, 0xd3, 0xc1, 0x1e, 0x37, 0x39, 0x4e, 0x2b, 0xe7, 0xd7, 0xfc,
    0x4b, 0xf9, 0xc8, 0x1e, 0xef, 0xb4, 0xfd, 0xe5, 0x52, 0x0c, 0x26, 0xe6,
    0x57, 0x9d, 0xce, 0xb5, 0xcd, 0xd5, 0x13, 0xd0, 0xd0, 0xd4, 0x2b, 0x06,
    0x17, 0x00, 0x21, 0xbf, 0xfc, 0xb5, 0xdc, 0x34, 0xcc, 0xf1, 0xde, 0x00,
    0xe2, 0xb8, 0x1d, 0xc1, 0xfc, 0xea, 0xfe, 0x02, 0x24, 0xd9, 0xbf, 0xfc,
    0xc1, 0xef, 0xdc, 0x23, 0xe0, 0xe5, 0xe0, 0x32, 0x7f, 0x20, 0x0e, 0xb9,
    0x25, 0xac, 0x1e, 0xf2, 0x0d, 0xc8, 0xe1, 0x16, 0xca, 0x97, 0x00, 0xad,
    0x0d, 0x47, 0x31, 0x0c, 0x14, 0xc7, 0xb7, 0xb8, 0xa2, 0xe6, 0xdb, 0x38,
    0xd8, 0xac, 0xc3, 0xd0, 0x51, 0x20, 0x4a, 0x2e, 0x19, 0x0c, 0x16, 0xfa,
    0x0e, 0xc0, 0xd4, 0x40, 0xf5, 0xdb, 0x2b, 0xda, 0x72, 0x4c, 0x2b, 0xdd,
    0x56, 0xbd, 0xcf, 0xb7, 0xff, 0xda, 0x22, 0x0c, 0x0e, 0xc3, 0x0d, 0xfa,
    0xce, 0x0f, 0x3a, 0xb2, 0x0c, 0xc4, 0x3b, 0x0a, 0xb2, 0xdc, 0x00, 0x52,
    0xce, 0xc2, 0x0d, 0xea, 0xee, 0x55, 0x10, 0xe2, 0x30, 0xc4, 0xca, 0x1c,
    0x2a, 0xd8, 0xd5, 0xbe, 0xf2, 0xdd, 0xc9, 0xd3, 0x43, 0xf2, 0x2f, 0xec,
    0x2d, 0xdc, 0xd8, 0x14, 0x92, 0xfb, 0xff, 0xff, 0x04, 0x00, 0x00, 0x00,
    0x40, 0x00, 0x00, 0x00, 0x69, 0xf4, 0xff, 0xff, 0x1a, 0xf7, 0xff, 0xff,
    0x02, 0xf9, 0xff, 0xff, 0x60, 0xff, 0xff, 0xff, 0x92, 0xfc, 0xff, 0xff,
    0x31, 0xf9, 0xff, 0xff, 0x0d, 0xf7, 0xff, 0xff, 0xe6, 0xf7, 0xff, 0xff,
    0xc7, 0xfe, 0xff, 0xff, 0x96, 0xff, 0xff, 0xff, 0xee, 0xff, 0xff, 0xff,
    0x79, 0xf9, 0xff, 0xff, 0x49, 0x00, 0x00, 0x00, 0xc4, 0xf7, 0xff, 0xff,
    0x46, 0xf8, 0xff, 0xff, 0x65, 0xf8, 0xff, 0xff, 0xde, 0xfb, 0xff, 0xff,
    0x04, 0x00, 0x00, 0x00, 0x80, 0x01, 0x00, 0x00, 0x81, 0xc6, 0xc4, 0x4f,
    0xed, 0xc6, 0x0b, 0x33, 0x16, 0xc4, 0xd0, 0xd6, 0x17, 0x96, 0xd3, 0xe5,
    0x78, 0xee, 0x04, 0x26, 0x2e, 0x65, 0xf3, 0xd0, 0xae, 0x12, 0xe6, 0xa0,
    0x9f, 0xd2, 0x02, 0x71, 0xde, 0x07, 0xe2, 0xed, 0xc0, 0x26, 0xc8, 0xf9,
    0x0c, 0xd9, 0xf1, 0x7f, 0x0f, 0x59, 0x96, 0xc7, 0xa8, 0xf9, 0x28, 0xb1,
    0xd9, 0x75, 0xc3, 0xde, 0x40, 0xcf, 0xe4, 0x35, 0xed, 0x25, 0xe7, 0x03,
    0xed, 0x8e, 0xda, 0x81, 0x34, 0x50, 0xc2, 0xce, 0xc5, 0x18, 0xe1, 0xec,
    0xea, 0x20, 0xf3, 0x11, 0xd7, 0xf0, 0xe4, 0xfb, 0x13, 0x08, 0x7f, 0xf7,
    0xd6, 0xbd, 0x30, 0xeb, 0xcf, 0xeb, 0x22, 0xcf, 0xf5, 0xe8, 0x05, 0xe3,
    0xee, 0xdc, 0xed, 0x58, 0x9b, 0xe9, 0xeb, 0x14, 0xfc, 0xa3, 0xee, 0x29,
    0xf8, 0xd8, 0xe2, 0x54, 0xbd, 0x7f, 0xff, 0x5d, 0xeb, 0xb3, 0xdc, 0x38,
    0x2e, 0x5b, 0xe9, 0x7f, 0xc4, 0xc4, 0xa4, 0x3d, 0x2f, 0x47, 0xdc, 0xc9,
    0xc3, 0xd0, 0xd4, 0xc9, 0xf8, 0x1c, 0xe0, 0x14, 0xd2, 0xb2, 0xf5, 0x50,
    0x6b, 0x21, 0xba, 0x5c, 0xfc, 0xdd, 0x81, 0x83, 0xa9, 0x77, 0x10, 0x97,
    0x18, 0x44, 0xd9, 0xe3, 0xc4, 0xc0, 0xd9, 0xd0, 0x01, 0xfe, 0x00, 0xbc,
    0xf8, 0x45, 0xfb, 0x53, 0x10, 0x96, 0xca, 0x4e, 0x7d, 0x2f, 0xf7, 0x81,
    0xc3, 0xa1, 0x9f, 0x26, 0x2d, 0x17, 0xd0, 0x34, 0xc8, 0x0b, 0x55, 0xea,
    0xec, 0x97, 0x7f, 0xeb, 0xae, 0x16, 0xb5, 0x0d, 0x7f, 0xc7, 0x11, 0xac,
    0xe7, 0x12, 0xd8, 0xc4, 0xc5, 0x98, 0x31, 0xba, 0xe3, 0xda, 0x0d, 0xd5,
    0x27, 0xf6, 0xc1, 0xcd, 0xd9, 0x48, 0x30, 0xc1, 0x0b, 0xe4, 0x7f, 0xc7,
    0xdc, 0xff, 0x41, 0xd1, 0x12, 0xbb, 0x23, 0xd4, 0xdd, 0x5b, 0x78, 0xd4,
    0xce, 0xb7, 0x08, 0xd2, 0x42, 0x0a, 0x21, 0xaf, 0x53, 0xd3, 0x55, 0xc5,
    0xfb, 0xfb, 0x18, 0x90, 0x98, 0xd3, 0x7f, 0xad, 0x17, 0xdb, 0xd3, 0x48,
    0xd7, 0x93, 0xf1, 0xe7, 0xd6, 0xf7, 0xd0, 0xcc, 0xc8, 0xa1, 0xe4, 0x7a,
    0xec, 0xee, 0xd0, 0x7f, 0x5b, 0x98, 0xef, 0x21, 0xe2, 0x08, 0x8c, 0xd5,
    0x46, 0xf1, 0x56, 0xca, 0xef, 0xec, 0x7f, 0xdd, 0x09, 0xb3, 0x34, 0xca,
    0xfb, 0x17, 0xab, 0xb3, 0xf5, 0x2b, 0x4d, 0xd0, 0xfd, 0xfb, 0xcf, 0x5f,
    0xb4, 0x47, 0xe7, 0x0d, 0xda, 0xb0, 0xe7, 0xee, 0x07, 0x23, 0xba, 0xc6,
    0xd7, 0xd2, 0xe0, 0x7f, 0x26, 0x08, 0xf8, 0x0f, 0x32, 0xcf, 0x14, 0x49,
    0xf1, 0x73, 0xdc, 0xa1, 0x09, 0xd3, 0xf4, 0x4b, 0x3f, 0x3f, 0xd0, 0x07,
    0xcc, 0xf7, 0xfb, 0x81, 0x0e, 0x1a, 0xd5, 0x0b, 0x7f, 0x04, 0x08, 0x26,
    0xb3, 0xa9, 0xc8, 0xdf, 0xdf, 0xc9, 0xf3, 0x87, 0x11, 0x47, 0x1e, 0xcc,
    0x65, 0xc3, 0xd9, 0x8b, 0xcc, 0x06, 0x42, 0x47, 0x6a, 0xfd, 0xff, 0xff,
    0x04, 0x00, 0x00, 0x00, 0x20, 0x00, 0x00, 0x00, 0x0c, 0xf2, 0xff, 0xff,
    0xaa, 0xf7, 0xff, 0xff, 0x24, 0xf3, 0xff, 0xff, 0x10, 0xf3, 0xff, 0xff,
    0xb6, 0xed, 0xff, 0xff, 0x30, 0xe8, 0xff, 0xff, 0x39, 0xed, 0xff, 0xff,
    0xb8, 0xf3, 0xff, 0xff, 0x96, 0xfd, 0xff, 0xff, 0x04, 0x00, 0x00, 0x00,
    0x38, 0x01, 0x00, 0x00, 0xf5, 0x16, 0xed, 0x32, 0x14, 0xe6, 0xf2, 0x6b,
    0x14, 0xfb, 0xea, 0x22, 0xf3, 0x7f, 0x15, 0xe6, 0xec, 0x1f, 0xf0, 0xde,
    0x44, 0xf0, 0xe5, 0xe3, 0x14, 0x41, 0xe2, 0x0e, 0xeb, 0xe4, 0xea, 0x02,
    0x38, 0xf9, 0xf6, 0x4a, 0xef, 0xb4, 0x1d, 0x2f, 0x10, 0xc0, 0x28, 0xf7,
    0xce, 0xf1, 0x00, 0xf9, 0x2c, 0x30, 0xbb, 0x1f, 0xd6, 0xea, 0x7f, 0xe6,
    0x23, 0x1a, 0x2b, 0x28, 0x0e, 0xe2, 0x11, 0x0a, 0x32, 0x12, 0x17, 0xc4,
    0xfc, 0xba, 0xe4, 0xd7, 0xf9, 0xc8, 0xbd, 0x12, 0xcc, 0x0e, 0x6e, 0x38,
    0x26, 0x4f, 0x81, 0xeb, 0xfd, 0x07, 0xeb, 0xf9, 0x0c, 0x15, 0x08, 0x24,
    0xdf, 0x9a, 0x26, 0xb7, 0x06, 0xf7, 0x04, 0xfc, 0xe0, 0xfb, 0xf0, 0x44,
    0x51, 0x17, 0x02, 0x02, 0xd5, 0x09, 0xf9, 0xd8, 0xe2, 0x14, 0xf1, 0x1c,
    0xfc, 0x81, 0x65, 0x8d, 0x41, 0xec, 0x18, 0xe5, 0xf0, 0x0a, 0x05, 0xfa,
    0xf8, 0x06, 0x47, 0x1f, 0xf0, 0x01, 0x1f, 0xfa, 0x10, 0xfc, 0x18, 0xe6,
    0x05, 0x09, 0xec, 0x32, 0x17, 0xed, 0xf8, 0x28, 0x00, 0x10, 0xf1, 0xf4,
    0x14, 0x1e, 0x07, 0xf5, 0x2f, 0x63, 0xaf, 0xfc, 0x4c, 0x08, 0x0b, 0x0e,
    0xc5, 0x20, 0x10, 0x12, 0xf0, 0xd2, 0x2a, 0xe6, 0x15, 0xee, 0x4d, 0xe8,
    0x28, 0x07, 0x34, 0x08, 0x7f, 0xd0, 0xfa, 0xcb, 0x37, 0xfb, 0xd6, 0xd4,
    0x31, 0xc7, 0x09, 0xc9, 0x2d, 0x48, 0x8d, 0x7f, 0x26, 0xd1, 0xcb, 0x49,
    0xd0, 0x0e, 0xf1, 0x30, 0xe7, 0xeb, 0x05, 0x2f, 0xbb, 0x3a, 0xc5, 0xe9,
    0x79, 0xd0, 0x0c, 0xeb, 0x0d, 0x19, 0xef, 0x25, 0xf6, 0x64, 0x23, 0xd1,
    0xd2, 0x42, 0xdf, 0x25, 0x10, 0xc7, 0x24, 0x1f, 0x19, 0xd4, 0x81, 0x9f,
    0x0f, 0xd2, 0x29, 0xdb, 0x2e, 0xd3, 0x34, 0xfe, 0xf4, 0x06, 0xfa, 0xc5,
    0xc4, 0x26, 0x06, 0x40, 0xd8, 0xfc, 0xe8, 0x15, 0x0f, 0x05, 0x0f, 0xd8,
    0x9f, 0x01, 0x37, 0xee, 0x4f, 0xde, 0x1c, 0xf5, 0xdb, 0x10, 0xf5, 0x0c,
    0xcb, 0x94, 0x03, 0x03, 0x1f, 0xd1, 0x0b, 0xf2, 0xfe, 0x06, 0x1b, 0xe6,
    0x1b, 0x0e, 0x3b, 0xb4, 0x7f, 0x9f, 0x17, 0xfc, 0xec, 0x20, 0xed, 0x06,
    0x02, 0xff, 0x02, 0x75, 0xaf, 0x6d, 0xb3, 0xfb, 0xde, 0x1e, 0xd4, 0x1a,
    0xfd, 0x19, 0xfa, 0xf6, 0xda, 0xfe, 0xff, 0xff, 0x04, 0x00, 0x00, 0x00,
    0x08, 0x00, 0x00, 0x00, 0xff, 0xff, 0xff, 0xff, 0xd0, 0x00, 0x00, 0x00,
    0xee, 0xfe, 0xff, 0xff, 0x04, 0x00, 0x00, 0x00, 0x10, 0x00, 0x00, 0x00,
    0x01, 0x00, 0x00, 0x00, 0x19, 0x00, 0x00, 0x00, 0x01, 0x00, 0x00, 0x00,
    0x10, 0x00, 0x00, 0x00, 0x0a, 0xff, 0xff, 0xff, 0x04, 0x00, 0x00, 0x00,
    0x10, 0x00, 0x00, 0x00, 0x01, 0x00, 0x00, 0x00, 0x01, 0x00, 0x00, 0x00,
    0x19, 0x00, 0x00, 0x00, 0x08, 0x00, 0x00, 0x00, 0x26, 0xff, 0xff, 0xff,
    0x04, 0x00, 0x00, 0x00, 0x10, 0x00, 0x00, 0x00, 0x01, 0x00, 0x00, 0x00,
    0x32, 0x00, 0x00, 0x00, 0x01, 0x00, 0x00, 0x00, 0x08, 0x00, 0x00, 0x00,
    0x42, 0xff, 0xff, 0xff, 0x04, 0x00, 0x00, 0x00, 0x10, 0x00, 0x00, 0x00,
    0x01, 0x00, 0x00, 0x00, 0x01, 0x00, 0x00, 0x00, 0x32, 0x00, 0x00, 0x00,
    0x0d, 0x00, 0x00, 0x00, 0x78, 0xf1, 0xff, 0xff, 0x7c, 0xf1, 0xff, 0xff,
    0x0f, 0x00, 0x00, 0x00, 0x4d, 0x4c, 0x49, 0x52, 0x20, 0x43, 0x6f, 0x6e,
    0x76, 0x65, 0x72, 0x74, 0x65, 0x64, 0x2e, 0x00, 0x01, 0x00, 0x00, 0x00,
    0x14, 0x00, 0x00, 0x00, 0x00, 0x00, 0x0e, 0x00, 0x18, 0x00, 0x14, 0x00,
    0x10, 0x00, 0x0c, 0x00, 0x08, 0x00, 0x04, 0x00, 0x0e, 0x00, 0x00, 0x00,
    0x14, 0x00, 0x00, 0x00, 0x1c, 0x00, 0x00, 0x00, 0x84, 0x02, 0x00, 0x00,
    0x88, 0x02, 0x00, 0x00, 0x8c, 0x02, 0x00, 0x00, 0x04, 0x00, 0x00, 0x00,
    0x6d, 0x61, 0x69, 0x6e, 0x00, 0x00, 0x00, 0x00, 0x0b, 0x00, 0x00, 0x00,
    0x48, 0x02, 0x00, 0x00, 0xec, 0x01, 0x00, 0x00, 0xb8, 0x01, 0x00, 0x00,
    0x68, 0x01, 0x00, 0x00, 0x44, 0x01, 0x00, 0x00, 0x00, 0x01, 0x00, 0x00,
    0xdc, 0x00, 0x00, 0x00, 0x9c, 0x00, 0x00, 0x00, 0x78, 0x00, 0x00, 0x00,
    0x40, 0x00, 0x00, 0x00, 0x04, 0x00, 0x00, 0x00, 0x4a, 0xfe, 0xff, 0xff,
    0x1c, 0x00, 0x00, 0x00, 0x00, 0x00, 0x00, 0x09, 0x1c, 0x00, 0x00, 0x00,
    0x20, 0x00, 0x00, 0x00, 0x04, 0x00, 0x00, 0x00, 0x00, 0x00, 0x06, 0x00,
    0x08, 0x00, 0x04, 0x00, 0x06, 0x00, 0x00, 0x00, 0x00, 0x00, 0x80, 0x3f,
    0x01, 0x00, 0x00, 0x00, 0x16, 0x00, 0x00, 0x00, 0x01, 0x00, 0x00, 0x00,
    0x15, 0x00, 0x00, 0x00, 0x82, 0xfe, 0xff, 0xff, 0x14, 0x00, 0x00, 0x00,
    0x00, 0x00, 0x00, 0x08, 0x10, 0x00, 0x00, 0x00, 0x14, 0x00, 0x00, 0x00,
    0x03, 0x00, 0x00, 0x00, 0x50, 0xf2, 0xff, 0xff, 0x01, 0x00, 0x00, 0x00,
    0x15, 0x00, 0x00, 0x00, 0x03, 0x00, 0x00, 0x00, 0x14, 0x00, 0x00, 0x00,
    0x0a, 0x00, 0x00, 0x00, 0x0b, 0x00, 0x00, 0x00, 0x5a, 0xfe, 0xff, 0xff,
    0x08, 0x00, 0x00, 0x00, 0x0c, 0x00, 0x00, 0x00, 0x01, 0x00, 0x00, 0x00,
    0x14, 0x00, 0x00, 0x00, 0x02, 0x00, 0x00, 0x00, 0x13, 0x00, 0x00, 0x00,
    0x05, 0x00, 0x00, 0x00, 0xd6, 0xfe, 0xff, 0xff, 0x14, 0x00, 0x00, 0x00,
    0x00, 0x00, 0x00, 0x05, 0x20, 0x00, 0x00, 0x00, 0x24, 0x00, 0x00, 0x00,
    0x02, 0x00, 0x00, 0x00, 0x42, 0xff, 0xff, 0xff, 0x02, 0x00, 0x00, 0x00,
    0x01, 0x00, 0x00, 0x00, 0x02, 0x00, 0x00, 0x00, 0x01, 0x00, 0x00, 0x00,
    0x01, 0x00, 0x00, 0x00, 0x13, 0x00, 0x00, 0x00, 0x01, 0x00, 0x00, 0x00,
    0x12, 0x00, 0x00, 0x00, 0xb6, 0xfe, 0xff, 0xff, 0x08, 0x00, 0x00, 0x00,
    0x0c, 0x00, 0x00, 0x00, 0x01, 0x00, 0x00, 0x00, 0x12, 0x00, 0x00, 0x00,
    0x02, 0x00, 0x00, 0x00, 0x11, 0x00, 0x00, 0x00, 0x04, 0x00, 0x00, 0x00,
    0x32, 0xff, 0xff, 0xff, 0x14, 0x00, 0x00, 0x00, 0x00, 0x00, 0x00, 0x01,
    0x1c, 0x00, 0x00, 0x00, 0x20, 0x00, 0x00, 0x00, 0x01, 0x00, 0x00, 0x00,
    0x24, 0xff, 0xff, 0xff, 0x00, 0x00, 0x00, 0x01, 0x01, 0x00, 0x00, 0x00,
    0x01, 0x00, 0x00, 0x00, 0x01, 0x00, 0x00, 0x00, 0x11, 0x00, 0x00, 0x00,
    0x03, 0x00, 0x00, 0x00, 0x10, 0x00, 0x00, 0x00, 0x08, 0x00, 0x00, 0x00,
    0x09, 0x00, 0x00, 0x00, 0x16, 0xff, 0xff, 0xff, 0x08, 0x00, 0x00, 0x00,
    0x0c, 0x00, 0x00, 0x00, 0x01, 0x00, 0x00, 0x00, 0x10, 0x00, 0x00, 0x00,
    0x02, 0x00, 0x00, 0x00, 0x0f, 0x00, 0x00, 0x00, 0x03, 0x00, 0x00, 0x00,
    0x92, 0xff, 0xff, 0xff, 0x24, 0x00, 0x00, 0x00, 0x00, 0x00, 0x00, 0x05,
    0x30, 0x00, 0x00, 0x00, 0x34, 0x00, 0x00, 0x00, 0x02, 0x00, 0x00, 0x00,
    0x00, 0x00, 0x0e, 0x00, 0x14, 0x00, 0x00, 0x00, 0x10, 0x00, 0x0c, 0x00,
    0x08, 0x00, 0x04, 0x00, 0x0e, 0x00, 0x00, 0x00, 0x02, 0x00, 0x00, 0x00,
    0x01, 0x00, 0x00, 0x00, 0x02, 0x00, 0x00, 0x00, 0x01, 0x00, 0x00, 0x00,
    0x01, 0x00, 0x00, 0x00, 0x0f, 0x00, 0x00, 0x00, 0x01, 0x00, 0x00, 0x00,
    0x0e, 0x00, 0x00, 0x00, 0x82, 0xff, 0xff, 0xff, 0x08, 0x00, 0x00, 0x00,
    0x0c, 0x00, 0x00, 0x00, 0x01, 0x00, 0x00, 0x00, 0x0e, 0x00, 0x00, 0x00,
    0x02, 0x00, 0x00, 0x00, 0x0d, 0x00, 0x00, 0x00, 0x02, 0x00, 0x00, 0x00,
    0x00, 0x00, 0x0e, 0x00, 0x18, 0x00, 0x14, 0x00, 0x10, 0x00, 0x0c, 0x00,
    0x0b, 0x00, 0x04, 0x00, 0x0e, 0x00, 0x00, 0x00, 0x20, 0x00, 0x00, 0x00,
    0x00, 0x00, 0x00, 0x01, 0x28, 0x00, 0x00, 0x00, 0x2c, 0x00, 0x00, 0x00,
    0x01, 0x00, 0x00, 0x00, 0x0c, 0x00, 0x10, 0x00, 0x00, 0x00, 0x0c, 0x00,
    0x08, 0x00, 0x07, 0x00, 0x0c, 0x00, 0x00, 0x00, 0x00, 0x00, 0x00, 0x01,
    0x01, 0x00, 0x00, 0x00, 0x01, 0x00, 0x00, 0x00, 0x01, 0x00, 0x00, 0x00,
    0x0d, 0x00, 0x00, 0x00, 0x03, 0x00, 0x00, 0x00, 0x0c, 0x00, 0x00, 0x00,
    0x06, 0x00, 0x00, 0x00, 0x07, 0x00, 0x00, 0x00, 0x00, 0x00, 0x0a, 0x00,
    0x0c, 0x00, 0x00, 0x00, 0x08, 0x00, 0x04, 0x00, 0x0a, 0x00, 0x00, 0x00,
    0x08, 0x00, 0x00, 0x00, 0x0c, 0x00, 0x00, 0x00, 0x01, 0x00, 0x00, 0x00,
    0x0c, 0x00, 0x00, 0x00, 0x02, 0x00, 0x00, 0x00, 0x00, 0x00, 0x00, 0x00,
    0x01, 0x00, 0x00, 0x00, 0x01, 0x00, 0x00, 0x00, 0x16, 0x00, 0x00, 0x00,
    0x01, 0x00, 0x00, 0x00, 0x00, 0x00, 0x00, 0x00, 0x17, 0x00, 0x00, 0x00,
    0xf8, 0x0b, 0x00, 0x00, 0x94, 0x0b, 0x00, 0x00, 0x44, 0x0b, 0x00, 0x00,
    0xf0, 0x0a, 0x00, 0x00, 0x9c, 0x0a, 0x00, 0x00, 0x54, 0x0a, 0x00, 0x00,
    0x8c, 0x09, 0x00, 0x00, 0xe0, 0x08, 0x00, 0x00, 0xbc, 0x07, 0x00, 0x00,
    0xb0, 0x06, 0x00, 0x00, 0x44, 0x06, 0x00, 0x00, 0xf0, 0x05, 0x00, 0x00,
    0x74, 0x05, 0x00, 0x00, 0xa8, 0x04, 0x00, 0x00, 0x2c, 0x04, 0x00, 0x00,
    0xb0, 0x03, 0x00, 0x00, 0x34, 0x03, 0x00, 0x00, 0x58, 0x02, 0x00, 0x00,
    0xdc, 0x01, 0x00, 0x00, 0x60, 0x01, 0x00, 0x00, 0xf4, 0x00, 0x00, 0x00,
    0x70, 0x00, 0x00, 0x00, 0x04, 0x00, 0x00, 0x00, 0x72, 0xf4, 0xff, 0xff,
    0x14, 0x00, 0x00, 0x00, 0x34, 0x00, 0x00, 0x00, 0x17, 0x00, 0x00, 0x00,
    0x00, 0x00, 0x00, 0x09, 0x48, 0x00, 0x00, 0x00, 0x64, 0xf4, 0xff, 0xff,
    0x08, 0x00, 0x00, 0x00, 0x14, 0x00, 0x00, 0x00, 0x01, 0x00, 0x00, 0x00,
    0x80, 0xff, 0xff, 0xff, 0xff, 0xff, 0xff, 0xff, 0x00, 0x00, 0x00, 0x00,
    0x01, 0x00, 0x00, 0x00, 0x00, 0x00, 0x80, 0x3b, 0x19, 0x00, 0x00, 0x00,
    0x53, 0x74, 0x61, 0x74, 0x65, 0x66, 0x75, 0x6c, 0x50, 0x61, 0x72, 0x74,
    0x69, 0x74, 0x69, 0x6f, 0x6e, 0x65, 0x64, 0x43, 0x61, 0x6c, 0x6c, 0x3a,
    0x30, 0x00, 0x00, 0x00, 0x02, 0x00, 0x00, 0x00, 0x01, 0x00, 0x00, 0x00,
    0x02, 0x00, 0x00, 0x00, 0xda, 0xf4, 0xff, 0xff, 0x14, 0x00, 0x00, 0x00,
    0x34, 0x00, 0x00, 0x00, 0x16, 0x00, 0x00, 0x00, 0x00, 0x00, 0x00, 0x09,
    0x60, 0x00, 0x00, 0x00, 0xcc, 0xf4, 0xff, 0xff, 0x08, 0x00, 0x00, 0x00,
    0x14, 0x00, 0x00, 0x00, 0x01, 0x00, 0x00, 0x00, 0xf7, 0xff, 0xff, 0xff,
    0xff, 0xff, 0xff, 0xff, 0x00, 0x00, 0x00, 0x00, 0x01, 0x00, 0x00, 0x00,
    0x33, 0xad, 0x4a, 0x3d, 0x32, 0x00, 0x00, 0x00, 0x73, 0x65, 0x71, 0x75,
    0x65, 0x6e, 0x74, 0x69, 0x61, 0x6c, 0x2f, 0x79, 0x5f, 0x70, 0x72, 0x65,
    0x64, 0x2f, 0x4d, 0x61, 0x74, 0x4d, 0x75, 0x6c, 0x3b, 0x73, 0x65, 0x71,
    0x75, 0x65, 0x6e, 0x74, 0x69, 0x61, 0x6c, 0x2f, 0x79, 0x5f, 0x70, 0x72,
    0x65, 0x64, 0x2f, 0x42, 0x69, 0x61, 0x73, 0x41, 0x64, 0x64, 0x00, 0x00,
    0x02, 0x00, 0x00, 0x00, 0x01, 0x00, 0x00, 0x00, 0x02, 0x00, 0x00, 0x00,
    0x5a, 0xf5, 0xff, 0xff, 0x14, 0x00, 0x00, 0x00, 0x34, 0x00, 0x00, 0x00,
    0x15, 0x00, 0x00, 0x00, 0x00, 0x00, 0x00, 0x09, 0x48, 0x00, 0x00, 0x00,
    0x4c, 0xf5, 0xff, 0xff, 0x08, 0x00, 0x00, 0x00, 0x14, 0x00, 0x00, 0x00,
    0x01, 0x00, 0x00, 0x00, 0x80, 0xff, 0xff, 0xff, 0xff, 0xff, 0xff, 0xff,
    0x00, 0x00, 0x00, 0x00, 0x01, 0x00, 0x00, 0x00, 0xfa, 0x5a, 0xa4, 0x3c,
    0x1a, 0x00, 0x00, 0x00, 0x73, 0x65, 0x71, 0x75, 0x65, 0x6e, 0x74, 0x69,
    0x61, 0x6c, 0x2f, 0x66, 0x6c, 0x61, 0x74, 0x74, 0x65, 0x6e, 0x2f, 0x52,
    0x65, 0x73, 0x68, 0x61, 0x70, 0x65, 0x00, 0x00, 0x02, 0x00, 0x00, 0x00,
    0x01, 0x00, 0x00, 0x00, 0xd0, 0x00, 0x00, 0x00, 0xc2, 0xf5, 0xff, 0xff,
    0x14, 0x00, 0x00, 0x00, 0x34, 0x00, 0x00, 0x00, 0x14, 0x00, 0x00, 0x00,
    0x00, 0x00, 0x00, 0x09, 0x50, 0x00, 0x00, 0x00, 0xb4, 0xf5, 0xff, 0xff,
    0x08, 0x00, 0x00, 0x00, 0x14, 0x00, 0x00, 0x00, 0x01, 0x00, 0x00, 0x00,
    0x80, 0xff, 0xff, 0xff, 0xff, 0xff, 0xff, 0xff, 0x00, 0x00, 0x00, 0x00,
    0x01, 0x00, 0x00, 0x00, 0xfa, 0x5a, 0xa4, 0x3c, 0x22, 0x00, 0x00, 0x00,
    0x73, 0x65, 0x71, 0x75, 0x65, 0x6e, 0x74, 0x69, 0x61, 0x6c, 0x2f, 0x6d,
    0x61, 0x78, 0x5f, 0x70, 0x6f, 0x6f, 0x6c, 0x69, 0x6e, 0x67, 0x31, 0x64,
    0x5f, 0x31, 0x2f, 0x4d, 0x61, 0x78, 0x50, 0x6f, 0x6f, 0x6c, 0x00, 0x00,
    0x04, 0x00, 0x00, 0x00, 0x01, 0x00, 0x00, 0x00, 0x0d, 0x00, 0x00, 0x00,
    0x01, 0x00, 0x00, 0x00, 0x10, 0x00, 0x00, 0x00, 0x3a, 0xf6, 0xff, 0xff,
    0x14, 0x00, 0x00, 0x00, 0x30, 0x00, 0x00, 0x00, 0x13, 0x00, 0x00, 0x00,
    0x00, 0x00, 0x00, 0x09, 0x50, 0x00, 0x00, 0x00, 0x2c, 0xf6, 0xff, 0xff,
    0x08, 0x00, 0x00, 0x00, 0x10, 0x00, 0x00, 0x00, 0x01, 0x00, 0x00, 0x00,
    0x80, 0xff, 0xff, 0xff, 0xff, 0xff, 0xff, 0xff, 0x01, 0x00, 0x00, 0x00,
    0xfa, 0x5a, 0xa4, 0x3c, 0x26, 0x00, 0x00, 0x00, 0x73, 0x65, 0x71, 0x75,
    0x65, 0x6e, 0x74, 0x69, 0x61, 0x6c, 0x2f, 0x6d, 0x61, 0x78, 0x5f, 0x70,
    0x6f, 0x6f, 0x6c, 0x69, 0x6e, 0x67, 0x31, 0x64, 0x5f, 0x31, 0x2f, 0x45,
    0x78, 0x70, 0x61, 0x6e, 0x64, 0x44, 0x69, 0x6d, 0x73, 0x31, 0x00, 0x00,
    0x04, 0x00, 0x00, 0x00, 0x01, 0x00, 0x00, 0x00, 0x19, 0x00, 0x00, 0x00,
    0x01, 0x00, 0x00, 0x00, 0x10, 0x00, 0x00, 0x00, 0xb2, 0xf6, 0xff, 0xff,
    0x14, 0x00, 0x00, 0x00, 0x34, 0x00, 0x00, 0x00, 0x12, 0x00, 0x00, 0x00,
    0x00, 0x00, 0x00, 0x09, 0xb0, 0x00, 0x00, 0x00, 0xa4, 0xf6, 0xff, 0xff,
    0x08, 0x00, 0x00, 0x00, 0x14, 0x00, 0x00, 0x00, 0x01, 0x00, 0x00, 0x00,
    0x80, 0xff, 0xff, 0xff, 0xff, 0xff, 0xff, 0xff, 0x00, 0x00, 0x00, 0x00,
    0x01, 0x00, 0x00, 0x00, 0xfa, 0x5a, 0xa4, 0x3c, 0x80, 0x00, 0x00, 0x00,
    0x73, 0x65, 0x71, 0x75, 0x65, 0x6e, 0x74, 0x69, 0x61, 0x6c, 0x2f, 0x63,
    0x6f, 0x6e, 0x76, 0x31, 0x64, 0x5f, 0x31, 0x2f, 0x52, 0x65, 0x6c, 0x75,
    0x3b, 0x73, 0x65, 0x71, 0x75, 0x65, 0x6e, 0x74, 0x69, 0x61, 0x6c, 0x2f,
    0x63, 0x6f, 0x6e, 0x76, 0x31, 0x64, 0x5f, 0x31, 0x2f, 0x42, 0x69, 0x61,
    0x73, 0x41, 0x64, 0x64, 0x3b, 0x73, 0x65, 0x71, 0x75, 0x65, 0x6e, 0x74,
    0x69, 0x61, 0x6c, 0x2f, 0x63, 0x6f, 0x6e, 0x76, 0x31, 0x64, 0x5f, 0x31,
    0x2f, 0x43, 0x6f, 0x6e, 0x76, 0x31, 0x44, 0x2f, 0x53, 0x71, 0x75, 0x65,
    0x65, 0x7a, 0x65, 0x3b, 0x63, 0x6f, 0x6e, 0x76, 0x31, 0x64, 0x5f, 0x31,
    0x2f, 0x62, 0x69, 0x61, 0x73, 0x3b, 0x73, 0x65, 0x71, 0x75, 0x65, 0x6e,
    0x74, 0x69, 0x61, 0x6c, 0x2f, 0x63, 0x6f, 0x6e, 0x76, 0x31, 0x64, 0x5f,
    0x31, 0x2f, 0x43, 0x6f, 0x6e, 0x76, 0x31, 0x44, 0x00, 0x00, 0x00, 0x00,
    0x04, 0x00, 0x00, 0x00, 0x01, 0x00, 0x00, 0x00, 0x01, 0x00, 0x00, 0x00,
    0x19, 0x00, 0x00, 0x00, 0x10, 0x00, 0x00, 0x00, 0x8a, 0xf7, 0xff, 0xff,
    0x14, 0x00, 0x00, 0x00, 0x30, 0x00, 0x00, 0x00, 0x11, 0x00, 0x00, 0x00,
    0x00, 0x00, 0x00, 0x09, 0x50, 0x00, 0x00, 0x00, 0x7c, 0xf7, 0xff, 0xff,
    0x08, 0x00, 0x00, 0x00, 0x10, 0x00, 0x00, 0x00, 0x01, 0x00, 0x00, 0x00,
    0x80, 0xff, 0xff, 0xff, 0xff, 0xff, 0xff, 0xff, 0x01, 0x00, 0x00, 0x00,
    0xb8, 0xe3, 0xd8, 0x3c, 0x26, 0x00, 0x00, 0x00, 0x73, 0x65, 0x71, 0x75,
    0x65, 0x6e, 0x74, 0x69, 0x61, 0x6c, 0x2f, 0x63, 0x6f, 0x6e, 0x76, 0x31,
    0x64, 0x5f, 0x31, 0x2f, 0x43, 0x6f, 0x6e, 0x76, 0x31, 0x44, 0x2f, 0x45,
    0x78, 0x70, 0x61, 0x6e, 0x64, 0x44, 0x69, 0x6d, 0x73, 0x31, 0x00, 0x00,
    0x04, 0x00, 0x00, 0x00, 0x01, 0x00, 0x00, 0x00, 0x01, 0x00, 0x00, 0x00,
    0x19, 0x00, 0x00, 0x00, 0x08, 0x00, 0x00, 0x00, 0x02, 0xf8, 0xff, 0xff,
    0x14, 0x00, 0x00, 0x00, 0x34, 0x00, 0x00, 0x00, 0x10, 0x00, 0x00, 0x00,
    0x00, 0x00, 0x00, 0x09, 0x50, 0x00, 0x00, 0x00, 0xf4, 0xf7, 0xff, 0xff,
    0x08, 0x00, 0x00, 0x00, 0x14, 0x00, 0x00, 0x00, 0x01, 0x00, 0x00, 0x00,
    0x80, 0xff, 0xff, 0xff, 0xff, 0xff, 0xff, 0xff, 0x00, 0x00, 0x00, 0x00,
    0x01, 0x00, 0x00, 0x00, 0xb8, 0xe3, 0xd8, 0x3c, 0x20, 0x00, 0x00, 0x00,
    0x73, 0x65, 0x71, 0x75, 0x65, 0x6e, 0x74, 0x69, 0x61, 0x6c, 0x2f, 0x6d,
    0x61, 0x78, 0x5f, 0x70, 0x6f, 0x6f, 0x6c, 0x69, 0x6e, 0x67, 0x31, 0x64,
    0x2f, 0x4d, 0x61, 0x78, 0x50, 0x6f, 0x6f, 0x6c, 0x00, 0x00, 0x00, 0x00,
    0x04, 0x00, 0x00, 0x00, 0x01, 0x00, 0x00, 0x00, 0x19, 0x00, 0x00, 0x00,
    0x01, 0x00, 0x00, 0x00, 0x08, 0x00, 0x00, 0x00, 0x7a, 0xf8, 0xff, 0xff,
    0x14, 0x00, 0x00, 0x00, 0x30, 0x00, 0x00, 0x00, 0x0f, 0x00, 0x00, 0x00,
    0x00, 0x00, 0x00, 0x09, 0x50, 0x00, 0x00, 0x00, 0x6c, 0xf8, 0xff, 0xff,
    0x08, 0x00, 0x00, 0x00, 0x10, 0x00, 0x00, 0x00, 0x01, 0x00, 0x00, 0x00,
    0x80, 0xff, 0xff, 0xff, 0xff, 0xff, 0xff, 0xff, 0x01, 0x00, 0x00, 0x00,
    0xb8, 0xe3, 0xd8, 0x3c, 0x24, 0x00, 0x00, 0x00, 0x73, 0x65, 0x71, 0x75,
    0x65, 0x6e, 0x74, 0x69, 0x61, 0x6c, 0x2f, 0x6d, 0x61, 0x78, 0x5f, 0x70,
    0x6f, 0x6f, 0x6c, 0x69, 0x6e, 0x67, 0x31, 0x64, 0x2f, 0x45, 0x78, 0x70,
    0x61, 0x6e, 0x64, 0x44, 0x69, 0x6d, 0x73, 0x31, 0x00, 0x00, 0x00, 0x00,
    0x04, 0x00, 0x00, 0x00, 0x01, 0x00, 0x00, 0x00, 0x32, 0x00, 0x00, 0x00,
    0x01, 0x00, 0x00, 0x00, 0x08, 0x00, 0x00, 0x00, 0xf2, 0xf8, 0xff, 0xff,
    0x14, 0x00, 0x00, 0x00, 0x30, 0x00, 0x00, 0x00, 0x0e, 0x00, 0x00, 0x00,
    0x00, 0x00, 0x00, 0x09, 0xa0, 0x00, 0x00, 0x00, 0xe4, 0xf8, 0xff, 0xff,
    0x08, 0x00, 0x00, 0x00, 0x10, 0x00, 0x00, 0x00, 0x01, 0x00, 0x00, 0x00,
    0x80, 0xff, 0xff, 0xff, 0xff, 0xff, 0xff, 0xff, 0x01, 0x00, 0x00, 0x00,
    0xb8, 0xe3, 0xd8, 0x3c, 0x76, 0x00, 0x00, 0x00, 0x73, 0x65, 0x71, 0x75,
    0x65, 0x6e, 0x74, 0x69, 0x61, 0x6c, 0x2f, 0x63, 0x6f, 0x6e, 0x76, 0x31,
    0x64, 0x2f, 0x52, 0x65, 0x6c, 0x75, 0x3b, 0x73, 0x65, 0x71, 0x75, 0x65,
    0x6e, 0x74, 0x69, 0x61, 0x6c, 0x2f, 0x63, 0x6f, 0x6e, 0x76, 0x31, 0x64,
    0x2f, 0x42, 0x69, 0x61, 0x73, 0x41, 0x64, 0x64, 0x3b, 0x73, 0x65, 0x71,
    0x75, 0x65, 0x6e, 0x74, 0x69, 0x61, 0x6c, 0x2f, 0x63, 0x6f, 0x6e, 0x76,
    0x31, 0x64, 0x2f, 0x43, 0x6f, 0x6e, 0x76, 0x31, 0x44, 0x2f, 0x53, 0x71,
    0x75, 0x65, 0x65, 0x7a, 0x65, 0x3b, 0x63, 0x6f, 0x6e, 0x76, 0x31, 0x64,
    0x2f, 0x62, 0x69, 0x61, 0x73, 0x3b, 0x73, 0x65, 0x71, 0x75, 0x65, 0x6e,
    0x74, 0x69, 0x61, 0x6c, 0x2f, 0x63, 0x6f, 0x6e, 0x76, 0x31, 0x64, 0x2f,
    0x43, 0x6f, 0x6e, 0x76, 0x31, 0x44, 0x00, 0x00, 0x04, 0x00, 0x00, 0x00,
    0x01, 0x00, 0x00, 0x00, 0x01, 0x00, 0x00, 0x00, 0x32, 0x00, 0x00, 0x00,
    0x08, 0x00, 0x00, 0x00, 0xba, 0xf9, 0xff, 0xff, 0x14, 0x00, 0x00, 0x00,
    0x30, 0x00, 0x00, 0x00, 0x0d, 0x00, 0x00, 0x00, 0x00, 0x00, 0x00, 0x09,
    0x50, 0x00, 0x00, 0x00, 0xac, 0xf9, 0xff, 0xff, 0x08, 0x00, 0x00, 0x00,
    0x10, 0x00, 0x00, 0x00, 0x01, 0x00, 0x00, 0x00, 0xed, 0xff, 0xff, 0xff,
    0xff, 0xff, 0xff, 0xff, 0x01, 0x00, 0x00, 0x00, 0xd5, 0xb7, 0x1d, 0x3d,
    0x24, 0x00, 0x00, 0x00, 0x73, 0x65, 0x71, 0x75, 0x65, 0x6e, 0x74, 0x69,
    0x61, 0x6c, 0x2f, 0x63, 0x6f, 0x6e, 0x76, 0x31, 0x64, 0x2f, 0x43, 0x6f,
    0x6e, 0x76, 0x31, 0x44, 0x2f, 0x45, 0x78, 0x70, 0x61, 0x6e, 0x64, 0x44,
    0x69, 0x6d, 0x73, 0x31, 0x00, 0x00, 0x00, 0x00, 0x04, 0x00, 0x00, 0x00,
    0x01, 0x00, 0x00, 0x00, 0x01, 0x00, 0x00, 0x00, 0x32, 0x00, 0x00, 0x00,
    0x0d, 0x00, 0x00, 0x00, 0x32, 0xfa, 0xff, 0xff, 0x14, 0x00, 0x00, 0x00,
    0x30, 0x00, 0x00, 0x00, 0x0c, 0x00, 0x00, 0x00, 0x00, 0x00, 0x00, 0x02,
    0x34, 0x00, 0x00, 0x00, 0x24, 0xfa, 0xff, 0xff, 0x08, 0x00, 0x00, 0x00,
    0x10, 0x00, 0x00, 0x00, 0x01, 0x00, 0x00, 0x00, 0x00, 0x00, 0x00, 0x00,
    0x00, 0x00, 0x00, 0x00, 0x01, 0x00, 0x00, 0x00, 0xa6, 0xce, 0x86, 0x38,
    0x0b, 0x00, 0x00, 0x00, 0x79, 0x5f, 0x70, 0x72, 0x65, 0x64, 0x2f, 0x62,
    0x69, 0x61, 0x73, 0x00, 0x01, 0x00, 0x00, 0x00, 0x02, 0x00, 0x00, 0x00,
    0x82, 0xfa, 0xff, 0xff, 0x14, 0x00, 0x00, 0x00, 0x34, 0x00, 0x00, 0x00,
    0x0b, 0x00, 0x00, 0x00, 0x00, 0x00, 0x00, 0x09, 0x48, 0x00, 0x00, 0x00,
    0x74, 0xfa, 0xff, 0xff, 0x08, 0x00, 0x00, 0x00, 0x14, 0x00, 0x00, 0x00,
    0x01, 0x00, 0x00, 0x00, 0x00, 0x00, 0x00, 0x00, 0x00, 0x00, 0x00, 0x00,
    0x00, 0x00, 0x00, 0x00, 0x01, 0x00, 0x00, 0x00, 0xcd, 0xf9, 0x51, 0x3b,
    0x18, 0x00, 0x00, 0x00, 0x73, 0x65, 0x71, 0x75, 0x65, 0x6e, 0x74, 0x69,
    0x61, 0x6c, 0x2f, 0x79, 0x5f, 0x70, 0x72, 0x65, 0x64, 0x2f, 0x4d, 0x61,
    0x74, 0x4d, 0x75, 0x6c, 0x00, 0x00, 0x00, 0x00, 0x02, 0x00, 0x00, 0x00,
    0x02, 0x00, 0x00, 0x00, 0xd0, 0x00, 0x00, 0x00, 0xea, 0xfa, 0xff, 0xff,
    0x14, 0x00, 0x00, 0x00, 0xe4, 0x00, 0x00, 0x00, 0x0a, 0x00, 0x00, 0x00,
    0x00, 0x00, 0x00, 0x02, 0xec, 0x00, 0x00, 0x00, 0xdc, 0xfa, 0xff, 0xff,
    0x08, 0x00, 0x00, 0x00, 0x88, 0x00, 0x00, 0x00, 0x10, 0x00, 0x00, 0x00,
    0x00, 0x00, 0x00, 0x00, 0x00, 0x00, 0x00, 0x00, 0x00, 0x00, 0x00, 0x00,
    0x00, 0x00, 0x00, 0x00, 0x00, 0x00, 0x00, 0x00, 0x00, 0x00, 0x00, 0x00,
    0x00, 0x00, 0x00, 0x00, 0x00, 0x00, 0x00, 0x00, 0x00, 0x00, 0x00, 0x00,
    0x00, 0x00, 0x00, 0x00, 0x00, 0x00, 0x00, 0x00, 0x00, 0x00, 0x00, 0x00,
    0x00, 0x00, 0x00, 0x00, 0x00, 0x00, 0x00, 0x00, 0x00, 0x00, 0x00, 0x00,
    0x00, 0x00, 0x00, 0x00, 0x00, 0x00, 0x00, 0x00, 0x00, 0x00, 0x00, 0x00,
    0x00, 0x00, 0x00, 0x00, 0x00, 0x00, 0x00, 0x00, 0x00, 0x00, 0x00, 0x00,
    0x00, 0x00, 0x00, 0x00, 0x00, 0x00, 0x00, 0x00, 0x00, 0x00, 0x00, 0x00,
    0x00, 0x00, 0x00, 0x00, 0x00, 0x00, 0x00, 0x00, 0x00, 0x00, 0x00, 0x00,
    0x00, 0x00, 0x00, 0x00, 0x00, 0x00, 0x00, 0x00, 0x00, 0x00, 0x00, 0x00,
    0x00, 0x00, 0x00, 0x00, 0x00, 0x00, 0x00, 0x00, 0x10, 0x00, 0x00, 0x00,
    0x3c, 0x90, 0xe8, 0x38, 0xcf, 0x6a, 0xb2, 0x38, 0x5c, 0xbd, 0xed, 0x38,
    0x94, 0x97, 0xea, 0x38, 0x19, 0xb8, 0xc3, 0x38, 0xad, 0xdd, 0xd3, 0x38,
    0xa4, 0x6e, 0xad, 0x38, 0xea, 0x2e, 0xcb, 0x38, 0xee, 0xcd, 0xd8, 0x38,
    0x4a, 0x0f, 0xe7, 0x38, 0x6a, 0x02, 0x96, 0x38, 0x22, 0xc9, 0xdc, 0x38,
    0xc2, 0xee, 0xc9, 0x38, 0x1b, 0xdc, 0xd4, 0x38, 0x54, 0x55, 0xd5, 0x38,
    0x2d, 0x92, 0xae, 0x38, 0x0d, 0x00, 0x00, 0x00, 0x63, 0x6f, 0x6e, 0x76,
    0x31, 0x64, 0x5f, 0x31, 0x2f, 0x62, 0x69, 0x61, 0x73, 0x00, 0x00, 0x00,
    0x01, 0x00, 0x00, 0x00, 0x10, 0x00, 0x00, 0x00, 0xf2, 0xfb, 0xff, 0xff,
    0x14, 0x00, 0x00, 0x00, 0xe4, 0x00, 0x00, 0x00, 0x09, 0x00, 0x00, 0x00,
    0x00, 0x00, 0x00, 0x09, 0xf8, 0x00, 0x00, 0x00, 0xe4, 0xfb, 0xff, 0xff,
    0x08, 0x00, 0x00, 0x00, 0x88, 0x00, 0x00, 0x00, 0x10, 0x00, 0x00, 0x00,
    0x00, 0x00, 0x00, 0x00, 0x00, 0x00, 0x00, 0x00, 0x00, 0x00, 0x00, 0x00,
    0x00, 0x00, 0x00, 0x00, 0x00, 0x00, 0x00, 0x00, 0x00, 0x00, 0x00, 0x00,
    0x00, 0x00, 0x00, 0x00, 0x00, 0x00, 0x00, 0x00, 0x00, 0x00, 0x00, 0x00,
    0x00, 0x00, 0x00, 0x00, 0x00, 0x00, 0x00, 0x00, 0x00, 0x00, 0x00, 0x00,
    0x00, 0x00, 0x00, 0x00, 0x00, 0x00, 0x00, 0x00, 0x00, 0x00, 0x00, 0x00,
    0x00, 0x00, 0x00, 0x00, 0x00, 0x00, 0x00, 0x00, 0x00, 0x00, 0x00, 0x00,
    0x00, 0x00, 0x00, 0x00, 0x00, 0x00, 0x00, 0x00, 0x00, 0x00, 0x00, 0x00,
    0x00, 0x00, 0x00, 0x00, 0x00, 0x00, 0x00, 0x00, 0x00, 0x00, 0x00, 0x00,
    0x00, 0x00, 0x00, 0x00, 0x00, 0x00, 0x00, 0x00, 0x00, 0x00, 0x00, 0x00,
    0x00, 0x00, 0x00, 0x00, 0x00, 0x00, 0x00, 0x00, 0x00, 0x00, 0x00, 0x00,
    0x00, 0x00, 0x00, 0x00, 0x00, 0x00, 0x00, 0x00, 0x10, 0x00, 0x00, 0x00,
    0x09, 0x40, 0x89, 0x3b, 0x17, 0x97, 0x52, 0x3b, 0x13, 0x4e, 0x8c, 0x3b,
    0x88, 0x72, 0x8a, 0x3b, 0x17, 0x03, 0x67, 0x3b, 0x0d, 0x12, 0x7a, 0x3b,
    0xcc, 0xb4, 0x4c, 0x3b, 0x79, 0xd2, 0x6f, 0x3b, 0x48, 0xe6, 0x7f, 0x3b,
    0xdb, 0x5c, 0x88, 0x3b, 0x4f, 0x0f, 0x31, 0x3b, 0xa3, 0x4c, 0x82, 0x3b,
    0x95, 0x58, 0x6e, 0x3b, 0x5c, 0x3e, 0x7b, 0x3b, 0x72, 0xcd, 0x7b, 0x3b,
    0xe8, 0x0c, 0x4e, 0x3b, 0x1a, 0x00, 0x00, 0x00, 0x73, 0x65, 0x71, 0x75,
    0x65, 0x6e, 0x74, 0x69, 0x61, 0x6c, 0x2f, 0x63, 0x6f, 0x6e, 0x76, 0x31,
    0x64, 0x5f, 0x31, 0x2f, 0x43, 0x6f, 0x6e, 0x76, 0x31, 0x44, 0x00, 0x00,
    0x04, 0x00, 0x00, 0x00, 0x10, 0x00, 0x00, 0x00, 0x01, 0x00, 0x00, 0x00,
    0x03, 0x00, 0x00, 0x00, 0x08, 0x00, 0x00, 0x00, 0x12, 0xfd, 0xff, 0xff,
    0x14, 0x00, 0x00, 0x00, 0x88, 0x00, 0x00, 0x00, 0x08, 0x00, 0x00, 0x00,
    0x00, 0x00, 0x00, 0x02, 0x8c, 0x00, 0x00, 0x00, 0x04, 0xfd, 0xff, 0xff,
    0x08, 0x00, 0x00, 0x00, 0x4c, 0x00, 0x00, 0x00, 0x08, 0x00, 0x00, 0x00,
    0x00, 0x00, 0x00, 0x00, 0x00, 0x00, 0x00, 0x00, 0x00, 0x00, 0x00, 0x00,
    0x00, 0x00, 0x00, 0x00, 0x00, 0x00, 0x00, 0x00, 0x00, 0x00, 0x00, 0x00,
    0x00, 0x00, 0x00, 0x00, 0x00, 0x00, 0x00, 0x00, 0x00, 0x00, 0x00, 0x00,
    0x00, 0x00, 0x00, 0x00, 0x00, 0x00, 0x00, 0x00, 0x00, 0x00, 0x00, 0x00,
    0x00, 0x00, 0x00, 0x00, 0x00, 0x00, 0x00, 0x00, 0x00, 0x00, 0x00, 0x00,
    0x00, 0x00, 0x00, 0x00, 0x00, 0x00, 0x00, 0x00, 0x08, 0x00, 0x00, 0x00,
    0x8c, 0xe1, 0x3c, 0x39, 0xe2, 0x51, 0x2d, 0x39, 0x31, 0x2c, 0x24, 0x39,
    0x87, 0x78, 0x52, 0x39, 0xdb, 0x26, 0x1f, 0x39, 0xa6, 0xef, 0x07, 0x39,
    0x8c, 0x91, 0x19, 0x39, 0xf1, 0x09, 0x41, 0x39, 0x0b, 0x00, 0x00, 0x00,
    0x63, 0x6f, 0x6e, 0x76, 0x31, 0x64, 0x2f, 0x62, 0x69, 0x61, 0x73, 0x00,
    0x01, 0x00, 0x00, 0x00, 0x08, 0x00, 0x00, 0x00, 0xba, 0xfd, 0xff, 0xff,
    0x14, 0x00, 0x00, 0x00, 0x88, 0x00, 0x00, 0x00, 0x07, 0x00, 0x00, 0x00,
    0x00, 0x00, 0x00, 0x09, 0x9c, 0x00, 0x00, 0x00, 0xac, 0xfd, 0xff, 0xff,
    0x08, 0x00, 0x00, 0x00, 0x4c, 0x00, 0x00, 0x00, 0x08, 0x00, 0x00, 0x00,
    0x00, 0x00, 0x00, 0x00, 0x00, 0x00, 0x00, 0x00, 0x00, 0x00, 0x00, 0x00,
    0x00, 0x00, 0x00, 0x00, 0x00, 0x00, 0x00, 0x00, 0x00, 0x00, 0x00, 0x00,
    0x00, 0x00, 0x00, 0x00, 0x00, 0x00, 0x00, 0x00, 0x00, 0x00, 0x00, 0x00,
    0x00, 0x00, 0x00, 0x00, 0x00, 0x00, 0x00, 0x00, 0x00, 0x00, 0x00, 0x00,
    0x00, 0x00, 0x00, 0x00, 0x00, 0x00, 0x00, 0x00, 0x00, 0x00, 0x00, 0x00,
    0x00, 0x00, 0x00, 0x00, 0x00, 0x00, 0x00, 0x00, 0x08, 0x00, 0x00, 0x00,
    0x83, 0x4a, 0x99, 0x3b, 0x78, 0xa9, 0x8c, 0x3b, 0x03, 0x3d, 0x85, 0x3b,
    0x11, 0xd0, 0xaa, 0x3b, 0xde, 0x29, 0x81, 0x3b, 0x06, 0xa5, 0x5c, 0x3b,
    0xc1, 0x43, 0x79, 0x3b, 0x59, 0xaa, 0x9c, 0x3b, 0x18, 0x00, 0x00, 0x00,
    0x73, 0x65, 0x71, 0x75, 0x65, 0x6e, 0x74, 0x69, 0x61, 0x6c, 0x2f, 0x63,
    0x6f, 0x6e, 0x76, 0x31, 0x64, 0x2f, 0x43, 0x6f, 0x6e, 0x76, 0x31, 0x44,
    0x00, 0x00, 0x00, 0x00, 0x04, 0x00, 0x00, 0x00, 0x08, 0x00, 0x00, 0x00,
    0x01, 0x00, 0x00, 0x00, 0x03, 0x00, 0x00, 0x00, 0x0d, 0x00, 0x00, 0x00,
    0x7e, 0xfe, 0xff, 0xff, 0x14, 0x00, 0x00, 0x00, 0x14, 0x00, 0x00, 0x00,
    0x06, 0x00, 0x00, 0x00, 0x00, 0x00, 0x00, 0x02, 0x28, 0x00, 0x00, 0x00,
    0xd0, 0xfe, 0xff, 0xff, 0x18, 0x00, 0x00, 0x00, 0x73, 0x65, 0x71, 0x75,
    0x65, 0x6e, 0x74, 0x69, 0x61, 0x6c, 0x2f, 0x66, 0x6c, 0x61, 0x74, 0x74,
    0x65, 0x6e, 0x2f, 0x43, 0x6f, 0x6e, 0x73, 0x74, 0x00, 0x00, 0x00, 0x00,
    0x01, 0x00, 0x00, 0x00, 0x02, 0x00, 0x00, 0x00, 0xc2, 0xfe, 0xff, 0xff,
    0x14, 0x00, 0x00, 0x00, 0x14, 0x00, 0x00, 0x00, 0x05, 0x00, 0x00, 0x00,
    0x00, 0x00, 0x00, 0x02, 0x34, 0x00, 0x00, 0x00, 0x14, 0xff, 0xff, 0xff,
    0x25, 0x00, 0x00, 0x00, 0x73, 0x65, 0x71, 0x75, 0x65, 0x6e, 0x74, 0x69,
    0x61, 0x6c, 0x2f, 0x6d, 0x61, 0x78, 0x5f, 0x70, 0x6f, 0x6f, 0x6c, 0x69,
    0x6e, 0x67, 0x31, 0x64, 0x5f, 0x31, 0x2f, 0x45, 0x78, 0x70, 0x61, 0x6e,
    0x64, 0x44, 0x69, 0x6d, 0x73, 0x00, 0x00, 0x00, 0x01, 0x00, 0x00, 0x00,
    0x04, 0x00, 0x00, 0x00, 0x12, 0xff, 0xff, 0xff, 0x14, 0x00, 0x00, 0x00,
    0x14, 0x00, 0x00, 0x00, 0x04, 0x00, 0x00, 0x00, 0x00, 0x00, 0x00, 0x02,
    0x34, 0x00, 0x00, 0x00, 0x64, 0xff, 0xff, 0xff, 0x25, 0x00, 0x00, 0x00,
    0x73, 0x65, 0x71, 0x75, 0x65, 0x6e, 0x74, 0x69, 0x61, 0x6c, 0x2f, 0x63,
    0x6f, 0x6e, 0x76, 0x31, 0x64, 0x5f, 0x31, 0x2f, 0x43, 0x6f, 0x6e, 0x76,
    0x31, 0x44, 0x2f, 0x45, 0x78, 0x70, 0x61, 0x6e, 0x64, 0x44, 0x69, 0x6d,
    0x73, 0x00, 0x00, 0x00, 0x01, 0x00, 0x00, 0x00, 0x04, 0x00, 0x00, 0x00,
    0x62, 0xff, 0xff, 0xff, 0x14, 0x00, 0x00, 0x00, 0x14, 0x00, 0x00, 0x00,
    0x03, 0x00, 0x00, 0x00, 0x00, 0x00, 0x00, 0x02, 0x30, 0x00, 0x00, 0x00,
    0xb4, 0xff, 0xff, 0xff, 0x23, 0x00, 0x00, 0x00, 0x73, 0x65, 0x71, 0x75,
    0x65, 0x6e, 0x74, 0x69, 0x61, 0x6c, 0x2f, 0x6d, 0x61, 0x78, 0x5f, 0x70,
    0x6f, 0x6f, 0x6c, 0x69, 0x6e, 0x67, 0x31, 0x64, 0x2f, 0x45, 0x78, 0x70,
    0x61, 0x6e, 0x64, 0x44, 0x69, 0x6d, 0x73, 0x00, 0x01, 0x00, 0x00, 0x00,
    0x04, 0x00, 0x00, 0x00, 0xae, 0xff, 0xff, 0xff, 0x18, 0x00, 0x00, 0x00,
    0x18, 0x00, 0x00, 0x00, 0x02, 0x00, 0x00, 0x00, 0x00, 0x00, 0x00, 0x02,
    0x34, 0x00, 0x00, 0x00, 0x04, 0x00, 0x04, 0x00, 0x04, 0x00, 0x00, 0x00,
    0x23, 0x00, 0x00, 0x00, 0x73, 0x65, 0x71, 0x75, 0x65, 0x6e, 0x74, 0x69,
    0x61, 0x6c, 0x2f, 0x63, 0x6f, 0x6e, 0x76, 0x31, 0x64, 0x2f, 0x43, 0x6f,
    0x6e, 0x76, 0x31, 0x44, 0x2f, 0x45, 0x78, 0x70, 0x61, 0x6e, 0x64, 0x44,
    0x69, 0x6d, 0x73, 0x00, 0x01, 0x00, 0x00, 0x00, 0x04, 0x00, 0x00, 0x00,
    0x00, 0x00, 0x0e, 0x00, 0x18, 0x00, 0x14, 0x00, 0x13, 0x00, 0x0c, 0x00,
    0x08, 0x00, 0x04, 0x00, 0x0e, 0x00, 0x00, 0x00, 0x20, 0x00, 0x00, 0x00,
    0x3c, 0x00, 0x00, 0x00, 0x01, 0x00, 0x00, 0x00, 0x00, 0x00, 0x00, 0x09,
    0x48, 0x00, 0x00, 0x00, 0x0c, 0x00, 0x0c, 0x00, 0x00, 0x00, 0x00, 0x00,
    0x08, 0x00, 0x04, 0x00, 0x0c, 0x00, 0x00, 0x00, 0x08, 0x00, 0x00, 0x00,
    0x10, 0x00, 0x00, 0x00, 0x01, 0x00, 0x00, 0x00, 0xed, 0xff, 0xff, 0xff,
    0xff, 0xff, 0xff, 0xff, 0x01, 0x00, 0x00, 0x00, 0xd5, 0xb7, 0x1d, 0x3d,
    0x13, 0x00, 0x00, 0x00, 0x73, 0x65, 0x72, 0x76, 0x69, 0x6e, 0x67, 0x5f,
    0x64, 0x65, 0x66, 0x61, 0x75, 0x6c, 0x74, 0x5f, 0x78, 0x3a, 0x30, 0x00,
    0x02, 0x00, 0x00, 0x00, 0x01, 0x00, 0x00, 0x00, 0x8a, 0x02, 0x00, 0x00,
    0x05, 0x00, 0x00, 0x00, 0x6c, 0x00, 0x00, 0x00, 0x4c, 0x00, 0x00, 0x00,
    0x2c, 0x00, 0x00, 0x00, 0x18, 0x00, 0x00, 0x00, 0x04, 0x00, 0x00, 0x00,
    0xd0, 0xff, 0xff, 0xff, 0x19, 0x00, 0x00, 0x00, 0x02, 0x00, 0x00, 0x00,
    0x00, 0x00, 0x00, 0x19, 0xe0, 0xff, 0xff, 0xff, 0x09, 0x00, 0x00, 0x00,
    0x04, 0x00, 0x00, 0x00, 0x00, 0x00, 0x00, 0x09, 0xf0, 0xff, 0xff, 0xff,
    0x11, 0x00, 0x00, 0x00, 0x02, 0x00, 0x00, 0x00, 0x00, 0x00, 0x00, 0x11,
    0x0c, 0x00, 0x10, 0x00, 0x0f, 0x00, 0x00, 0x00, 0x08, 0x00, 0x04, 0x00,
    0x0c, 0x00, 0x00, 0x00, 0x03, 0x00, 0x00, 0x00, 0x03, 0x00, 0x00, 0x00,
    0x00, 0x00, 0x00, 0x03, 0x0c, 0x00, 0x0c, 0x00, 0x0b, 0x00, 0x00, 0x00,
    0x00, 0x00, 0x04, 0x00, 0x0c, 0x00, 0x00, 0x00, 0x16, 0x00, 0x00, 0x00,
    0x00, 0x00, 0x00, 0x16
  };
  unsigned int trained_tflite_len = 5848;
}
#endif // _EI_CLASSIFIER_TFLITE_TRAINED_H_

