/* Generated by Edge Impulse
 *
 * Permission is hereby granted, free of charge, to any person obtaining a copy
 * of this software and associated documentation files (the "Software"), to deal
 * in the Software without restriction, including without limitation the rights
 * to use, copy, modify, merge, publish, distribute, sublicense, and/or sell
 * copies of the Software, and to permit persons to whom the Software is
 * furnished to do so, subject to the following conditions:
 *
 * The above copyright notice and this permission notice shall be included in
 * all copies or substantial portions of the Software.
 *
 * THE SOFTWARE IS PROVIDED "AS IS", WITHOUT WARRANTY OF ANY KIND, EXPRESS OR
 * IMPLIED, INCLUDING BUT NOT LIMITED TO THE WARRANTIES OF MERCHANTABILITY,
 * FITNESS FOR A PARTICULAR PURPOSE AND NONINFRINGEMENT. IN NO EVENT SHALL THE
 * AUTHORS OR COPYRIGHT HOLDERS BE LIABLE FOR ANY CLAIM, DAMAGES OR OTHER
 * LIABILITY, WHETHER IN AN ACTION OF CONTRACT, TORT OR OTHERWISE, ARISING FROM,
 * OUT OF OR IN CONNECTION WITH THE SOFTWARE OR THE USE OR OTHER DEALINGS IN THE
 * SOFTWARE.
 */

#ifndef _EI_CLASSIFIER_TFLITE_TRAINED_MIC_H_
#define _EI_CLASSIFIER_TFLITE_TRAINED_MIC_H_

#define EI_CLASSIFIER_TFLITE_ARENA_SIZE     11468

#if defined __GNUC__
#define ALIGN(X) __attribute__((aligned(X)))
#elif defined _MSC_VER
#define ALIGN(X) __declspec(align(X))
#elif defined __TASKING__
#define ALIGN(X) __align(X)
#else
#define ALIGN(X)
#endif
ALIGN(16) const unsigned char trained_tflite_mic[] = {
  0x20, 0x00, 0x00, 0x00, 0x54, 0x46, 0x4c, 0x33, 0x00, 0x00, 0x00, 0x00,
  0x14, 0x00, 0x20, 0x00, 0x1c, 0x00, 0x18, 0x00, 0x14, 0x00, 0x10, 0x00,
  0x0c, 0x00, 0x00, 0x00, 0x08, 0x00, 0x04, 0x00, 0x14, 0x00, 0x00, 0x00,
  0x1c, 0x00, 0x00, 0x00, 0x8c, 0x00, 0x00, 0x00, 0xbc, 0x00, 0x00, 0x00,
  0xb8, 0x10, 0x00, 0x00, 0xc8, 0x10, 0x00, 0x00, 0xb4, 0x1c, 0x00, 0x00,
  0x03, 0x00, 0x00, 0x00, 0x01, 0x00, 0x00, 0x00, 0x10, 0x00, 0x00, 0x00,
  0x00, 0x00, 0x0a, 0x00, 0x10, 0x00, 0x0c, 0x00, 0x08, 0x00, 0x04, 0x00,
  0x0a, 0x00, 0x00, 0x00, 0x0c, 0x00, 0x00, 0x00, 0x1c, 0x00, 0x00, 0x00,
  0x3c, 0x00, 0x00, 0x00, 0x0f, 0x00, 0x00, 0x00, 0x73, 0x65, 0x72, 0x76,
  0x69, 0x6e, 0x67, 0x5f, 0x64, 0x65, 0x66, 0x61, 0x75, 0x6c, 0x74, 0x00,
  0x01, 0x00, 0x00, 0x00, 0x04, 0x00, 0x00, 0x00, 0xc4, 0xff, 0xff, 0xff,
  0x10, 0x00, 0x00, 0x00, 0x04, 0x00, 0x00, 0x00, 0x08, 0x00, 0x00, 0x00,
  0x6f, 0x75, 0x74, 0x70, 0x75, 0x74, 0x5f, 0x30, 0x00, 0x00, 0x00, 0x00,
  0x01, 0x00, 0x00, 0x00, 0x04, 0x00, 0x00, 0x00, 0x2e, 0xef, 0xff, 0xff,
  0x04, 0x00, 0x00, 0x00, 0x01, 0x00, 0x00, 0x00, 0x78, 0x00, 0x00, 0x00,
  0x01, 0x00, 0x00, 0x00, 0x0c, 0x00, 0x00, 0x00, 0x08, 0x00, 0x0c, 0x00,
  0x08, 0x00, 0x04, 0x00, 0x08, 0x00, 0x00, 0x00, 0x12, 0x00, 0x00, 0x00,
  0x04, 0x00, 0x00, 0x00, 0x13, 0x00, 0x00, 0x00, 0x6d, 0x69, 0x6e, 0x5f,
  0x72, 0x75, 0x6e, 0x74, 0x69, 0x6d, 0x65, 0x5f, 0x76, 0x65, 0x72, 0x73,
  0x69, 0x6f, 0x6e, 0x00, 0x13, 0x00, 0x00, 0x00, 0xf8, 0x0f, 0x00, 0x00,
  0xf0, 0x0f, 0x00, 0x00, 0xd0, 0x0f, 0x00, 0x00, 0xb8, 0x0f, 0x00, 0x00,
  0x60, 0x0f, 0x00, 0x00, 0x30, 0x0f, 0x00, 0x00, 0xa0, 0x0a, 0x00, 0x00,
  0x50, 0x0a, 0x00, 0x00, 0x80, 0x00, 0x00, 0x00, 0x64, 0x00, 0x00, 0x00,
  0x5c, 0x00, 0x00, 0x00, 0x54, 0x00, 0x00, 0x00, 0x4c, 0x00, 0x00, 0x00,
  0x44, 0x00, 0x00, 0x00, 0x3c, 0x00, 0x00, 0x00, 0x34, 0x00, 0x00, 0x00,
  0x2c, 0x00, 0x00, 0x00, 0x24, 0x00, 0x00, 0x00, 0x04, 0x00, 0x00, 0x00,
  0xc2, 0xef, 0xff, 0xff, 0x04, 0x00, 0x00, 0x00, 0x10, 0x00, 0x00, 0x00,
  0x31, 0x2e, 0x31, 0x34, 0x2e, 0x30, 0x00, 0x00, 0x00, 0x00, 0x00, 0x00,
  0x00, 0x00, 0x00, 0x00, 0x18, 0xe5, 0xff, 0xff, 0x1c, 0xe5, 0xff, 0xff,
  0x20, 0xe5, 0xff, 0xff, 0x24, 0xe5, 0xff, 0xff, 0x28, 0xe5, 0xff, 0xff,
  0x2c, 0xe5, 0xff, 0xff, 0x30, 0xe5, 0xff, 0xff, 0x34, 0xe5, 0xff, 0xff,
  0xfe, 0xef, 0xff, 0xff, 0x04, 0x00, 0x00, 0x00, 0x0c, 0x00, 0x00, 0x00,
  0x34, 0xff, 0xff, 0xff, 0x8b, 0x0b, 0x00, 0x00, 0xe0, 0xf6, 0xff, 0xff,
  0x16, 0xf0, 0xff, 0xff, 0x04, 0x00, 0x00, 0x00, 0xc0, 0x09, 0x00, 0x00,
  0x09, 0xc4, 0xfc, 0x2c, 0xc3, 0xc9, 0xcf, 0x09, 0xaa, 0x0e, 0x02, 0x12,
  0xf5, 0x3f, 0x23, 0x01, 0x19, 0x02, 0x0f, 0xf3, 0xe2, 0x0d, 0x0f, 0x05,
  0xcf, 0x09, 0x0d, 0xe3, 0xec, 0xe2, 0xd4, 0xc4, 0xf1, 0x36, 0xe6, 0xf3,
  0xde, 0x14, 0xed, 0x08, 0xea, 0xf3, 0xc2, 0x49, 0xe5, 0xed, 0xdf, 0x18,
  0x33, 0xd5, 0x13, 0xd8, 0xb4, 0x0a, 0x1c, 0xfc, 0x3a, 0xf5, 0xf3, 0xf9,
  0xf6, 0xd8, 0x15, 0xec, 0x30, 0x0e, 0xde, 0x1e, 0x11, 0xc7, 0xce, 0x1e,
  0xa5, 0xec, 0x07, 0x14, 0xf1, 0x1e, 0xec, 0xff, 0x0c, 0x17, 0x18, 0x10,
  0x37, 0xf1, 0xfa, 0xf2, 0xfb, 0x13, 0x01, 0xfd, 0x02, 0x0b, 0xee, 0x02,
  0xfc, 0x55, 0xfa, 0xfa, 0xa3, 0x1c, 0xe8, 0x19, 0xf3, 0x0f, 0xf8, 0x3c,
  0x26, 0x13, 0xe4, 0xfc, 0x13, 0xe6, 0x37, 0xfc, 0xf4, 0x06, 0x06, 0xf3,
  0x3b, 0x12, 0x2d, 0xfb, 0xd5, 0xeb, 0xf2, 0xd8, 0x1c, 0x01, 0xed, 0x1c,
  0xd1, 0xe0, 0x25, 0x05, 0xd8, 0xbd, 0x14, 0x16, 0xca, 0x29, 0xd8, 0xd0,
  0xf3, 0x14, 0xf8, 0x13, 0xf4, 0xc8, 0xf7, 0x29, 0x1a, 0x05, 0xdc, 0xf5,
  0xf5, 0x02, 0xcc, 0x09, 0x2b, 0x36, 0x0d, 0xe8, 0xd2, 0xfc, 0x20, 0x13,
  0xfa, 0xff, 0xbb, 0x47, 0x0f, 0xed, 0xf6, 0xe5, 0x3b, 0xdd, 0x32, 0xe7,
  0xd5, 0x1a, 0x15, 0xce, 0x39, 0x09, 0x1f, 0xdd, 0xff, 0xef, 0xfa, 0xe4,
  0x19, 0xf0, 0xd6, 0x1b, 0xdf, 0x00, 0x45, 0x00, 0xee, 0xad, 0x0f, 0x19,
  0xd6, 0x2d, 0xd4, 0xaf, 0x08, 0x07, 0x1b, 0x29, 0xd2, 0xed, 0xc6, 0x02,
  0x01, 0x17, 0x00, 0xe1, 0xe1, 0xf9, 0xf7, 0x12, 0xe5, 0x20, 0xdb, 0xf1,
  0xda, 0x15, 0xb1, 0x29, 0x2d, 0x02, 0xef, 0x31, 0x0f, 0xe9, 0xed, 0xe6,
  0x40, 0xb3, 0x0f, 0xf7, 0xe0, 0xff, 0xf4, 0xcc, 0x25, 0x1c, 0xeb, 0xe8,
  0xed, 0xf6, 0xee, 0xf5, 0x0e, 0x02, 0xd3, 0x1e, 0xf5, 0xe3, 0xf2, 0xf6,
  0xde, 0xa4, 0x0d, 0x18, 0xd7, 0x58, 0xf5, 0xbc, 0xe1, 0x0d, 0xf4, 0xf1,
  0xfe, 0xe5, 0xe4, 0x2a, 0xfa, 0x1b, 0x0a, 0xea, 0xd5, 0xed, 0xfb, 0xee,
  0xf1, 0x0d, 0xd7, 0xff, 0xdf, 0x03, 0xfb, 0x1c, 0xe9, 0x0d, 0xf4, 0x27,
  0x0d, 0x0b, 0xf1, 0xfd, 0xd0, 0xfa, 0xf1, 0x0e, 0xd6, 0xde, 0xff, 0x0c,
  0xdd, 0xff, 0x0b, 0xd2, 0x23, 0xfc, 0xfb, 0xf3, 0x1c, 0xff, 0xd1, 0x01,
  0xe6, 0xe8, 0xfc, 0xd8, 0xda, 0xb8, 0xf8, 0xfe, 0xeb, 0x2e, 0xd7, 0xd4,
  0x02, 0x1f, 0x0f, 0xf1, 0x4f, 0xec, 0xcd, 0xfc, 0x02, 0x15, 0xf8, 0xf3,
  0xf9, 0xd1, 0xdc, 0xec, 0xda, 0x0f, 0xf8, 0xd6, 0xcf, 0xf6, 0xc9, 0x21,
  0x17, 0x27, 0x0d, 0x16, 0xf5, 0xf8, 0xec, 0x09, 0x28, 0x0b, 0x12, 0xf2,
  0xd5, 0xfe, 0xf8, 0x03, 0xed, 0x08, 0x2b, 0x12, 0xf7, 0x08, 0xfa, 0xf8,
  0x26, 0x18, 0xdd, 0xd0, 0xf9, 0xc2, 0x43, 0xf7, 0xef, 0xb3, 0x03, 0x17,
  0x98, 0x37, 0xca, 0xd3, 0x2b, 0x0e, 0x16, 0x21, 0xb3, 0xfa, 0x0f, 0x0d,
  0x10, 0x18, 0xf0, 0xf9, 0x11, 0xfa, 0xc0, 0x1a, 0xf8, 0x30, 0xe9, 0xe7,
  0xdb, 0x04, 0x1a, 0x1e, 0xfd, 0x13, 0x32, 0x17, 0xe2, 0x09, 0xf3, 0xdf,
  0xe9, 0xf4, 0xed, 0xe4, 0xfd, 0x0a, 0xd4, 0xe7, 0x0a, 0x01, 0x07, 0x16,
  0x19, 0x1e, 0x17, 0xca, 0x14, 0x13, 0xf0, 0xbb, 0xe8, 0xc1, 0x17, 0xf3,
  0xf3, 0xbf, 0x00, 0x17, 0xec, 0x23, 0xf2, 0x1d, 0x14, 0x29, 0x14, 0x17,
  0x03, 0x16, 0x18, 0x06, 0x1f, 0xfe, 0xd9, 0x01, 0x1e, 0xd2, 0xd1, 0x11,
  0x07, 0x13, 0xfe, 0xf2, 0xea, 0xef, 0x05, 0x2a, 0xe8, 0x15, 0xfd, 0xe1,
  0xe3, 0xf9, 0x1c, 0x19, 0xd7, 0x2b, 0x04, 0xde, 0xf6, 0x1f, 0xff, 0xff,
  0x0a, 0x30, 0xf7, 0xe0, 0xe8, 0xf8, 0xe2, 0xe1, 0x19, 0x1a, 0xef, 0x1e,
  0xfb, 0xf3, 0xf0, 0xe6, 0x00, 0xd8, 0xec, 0x18, 0xb1, 0x23, 0xf0, 0xd3,
  0x19, 0x0b, 0x36, 0xdb, 0x08, 0x0a, 0x31, 0x1f, 0xff, 0x21, 0xeb, 0xd2,
  0xe5, 0xae, 0xd0, 0x19, 0xfc, 0x05, 0x15, 0xe6, 0x1a, 0x0f, 0x06, 0xec,
  0x10, 0x29, 0x2c, 0xeb, 0xf7, 0x01, 0xf7, 0xe2, 0xf6, 0xc7, 0x1e, 0xd2,
  0xd3, 0xe1, 0xfe, 0xfe, 0xe5, 0x0c, 0xe9, 0xf9, 0x17, 0xfd, 0xe7, 0x00,
  0x0d, 0x17, 0x03, 0x24, 0xfc, 0xdb, 0xea, 0xf7, 0xd9, 0xd5, 0xfb, 0x13,
  0xdc, 0x27, 0xe8, 0xbc, 0xe9, 0x07, 0x0a, 0xfd, 0x13, 0x0c, 0x1b, 0x1d,
  0x0b, 0x27, 0x00, 0xce, 0xdc, 0xcf, 0x01, 0x07, 0xff, 0x0b, 0xe5, 0x04,
  0xf2, 0xf3, 0xfd, 0x0d, 0x04, 0x2a, 0x46, 0xee, 0xe3, 0x04, 0x0c, 0x12,
  0xcc, 0x05, 0xe0, 0x31, 0xdf, 0xd6, 0x12, 0x08, 0x9c, 0xd8, 0xbc, 0xcf,
  0x18, 0x04, 0x0b, 0xf9, 0x1a, 0x0d, 0x0a, 0x22, 0xca, 0xa9, 0x1d, 0xfb,
  0xde, 0xe5, 0xe7, 0x12, 0xf8, 0x30, 0xe9, 0xb1, 0xde, 0xfc, 0x07, 0xc2,
  0xe4, 0x0d, 0x0e, 0x0a, 0xfd, 0x10, 0x1e, 0xdf, 0xc8, 0xea, 0xbd, 0xbc,
  0xf8, 0xf7, 0xf1, 0xd9, 0xfb, 0xf8, 0xe1, 0xf8, 0x01, 0x09, 0x36, 0x02,
  0x1d, 0xfb, 0x0e, 0x08, 0x48, 0x09, 0x1f, 0x01, 0xd2, 0x14, 0x10, 0xf4,
  0x0d, 0xee, 0x28, 0xe4, 0x03, 0xdd, 0xec, 0x11, 0x1e, 0x15, 0xf8, 0x2a,
  0xf3, 0xcb, 0xf5, 0x01, 0x06, 0xe1, 0xfe, 0x25, 0xd0, 0x21, 0x3e, 0xe0,
  0xf5, 0x1f, 0x0f, 0x05, 0x08, 0xfb, 0x21, 0xdd, 0x18, 0x06, 0xf9, 0xda,
  0xea, 0xe9, 0xfe, 0xd2, 0x1c, 0x01, 0xe6, 0x0c, 0x08, 0x2e, 0x2a, 0x1d,
  0x0e, 0x03, 0x2e, 0x01, 0xf7, 0x09, 0xea, 0xf0, 0x29, 0xf4, 0x31, 0x02,
  0xcb, 0x07, 0xf3, 0x12, 0x17, 0xfb, 0x0d, 0xe2, 0xfc, 0x03, 0xf9, 0x04,
  0xf8, 0x49, 0xf3, 0x35, 0xe5, 0x29, 0x0c, 0xfc, 0xe6, 0xd5, 0xfc, 0x23,
  0xff, 0x55, 0x2a, 0xe9, 0xd6, 0x17, 0x08, 0x0a, 0xe6, 0xfe, 0x23, 0xf4,
  0x01, 0x2a, 0x0a, 0xda, 0xf5, 0xcc, 0xfe, 0xbd, 0xcc, 0x08, 0xf0, 0xee,
  0x1a, 0x23, 0xfa, 0x06, 0x05, 0xef, 0x39, 0xc4, 0xfd, 0xdd, 0xd0, 0xda,
  0xcd, 0xa4, 0xd0, 0xfc, 0x3d, 0x23, 0xc9, 0xdd, 0xd2, 0xc7, 0xd4, 0x2b,
  0x53, 0xf8, 0xe1, 0x35, 0x14, 0x00, 0x10, 0xe0, 0xdc, 0x14, 0x31, 0x13,
  0x1d, 0xf5, 0x15, 0x08, 0x14, 0xf7, 0xd8, 0xf5, 0xc8, 0x0f, 0x02, 0x23,
  0x29, 0xd8, 0xef, 0x24, 0x28, 0x07, 0xea, 0xfe, 0x09, 0x23, 0x24, 0x24,
  0x15, 0xfb, 0x1b, 0x21, 0xfd, 0x04, 0xfd, 0x00, 0xe1, 0xf9, 0xf3, 0xdf,
  0x2c, 0x24, 0x1a, 0xff, 0xe6, 0x17, 0x0f, 0xfc, 0x1d, 0xdc, 0x01, 0xf0,
  0xb7, 0x15, 0x34, 0x0d, 0xf1, 0xf2, 0xea, 0xf0, 0xdf, 0x03, 0xd7, 0xf6,
  0x02, 0xe5, 0x21, 0x16, 0x30, 0xfb, 0xfa, 0xed, 0x09, 0xf7, 0x05, 0xcd,
  0xdb, 0x00, 0x02, 0xca, 0xdd, 0xc4, 0xff, 0x08, 0xfd, 0x1b, 0x06, 0x04,
  0xfd, 0x1b, 0x17, 0xe7, 0x0f, 0xca, 0x02, 0x07, 0x0f, 0xdb, 0xfe, 0xfc,
  0x16, 0xdd, 0x0b, 0xd7, 0xef, 0x00, 0xfb, 0x21, 0xc8, 0x1c, 0xe0, 0x15,
  0xff, 0xda, 0x04, 0xd0, 0xb1, 0xf6, 0xdc, 0x1d, 0x19, 0xf2, 0xf3, 0x5d,
  0xd3, 0xde, 0xd6, 0xf0, 0xf0, 0xfc, 0xd0, 0x07, 0x1f, 0x21, 0xe4, 0xf5,
  0x19, 0x03, 0x0b, 0xe8, 0x0d, 0xf3, 0x05, 0x19, 0x09, 0xec, 0xf2, 0xda,
  0xee, 0x0a, 0x23, 0x1e, 0x16, 0x19, 0x11, 0xf7, 0xa7, 0xd4, 0xef, 0xfc,
  0xea, 0x27, 0xe1, 0xe1, 0xe4, 0xef, 0x22, 0xb5, 0x2d, 0x03, 0x11, 0xf7,
  0xda, 0x17, 0xec, 0x2e, 0x20, 0xce, 0x0c, 0x0c, 0xde, 0xf0, 0x13, 0x55,
  0x0b, 0x13, 0x15, 0x65, 0xd0, 0x02, 0xf1, 0x14, 0x09, 0x16, 0xd6, 0xf9,
  0x1b, 0x1d, 0xf0, 0xee, 0x18, 0x18, 0x1e, 0xfc, 0xf0, 0x15, 0xec, 0xe1,
  0x1b, 0x1c, 0x1e, 0x00, 0xdf, 0x0a, 0xe5, 0x09, 0xfd, 0x1c, 0x0b, 0x22,
  0x10, 0xd9, 0x22, 0x1a, 0xfb, 0xe7, 0x2d, 0xef, 0xb9, 0xf5, 0x18, 0x0d,
  0xfb, 0x02, 0x01, 0x11, 0xa6, 0x4e, 0xd1, 0x00, 0x0e, 0xfe, 0x0a, 0x2a,
  0x06, 0xf9, 0x29, 0x1f, 0x0a, 0x03, 0x13, 0x3f, 0xe2, 0xf9, 0xf8, 0x15,
  0xf7, 0xf7, 0x02, 0xeb, 0x29, 0x1f, 0xe9, 0xf1, 0x15, 0xf9, 0x1a, 0xfb,
  0x07, 0x00, 0x09, 0x01, 0x13, 0xe5, 0xe2, 0xd7, 0xeb, 0xd1, 0x18, 0x0c,
  0x26, 0x0a, 0x13, 0x10, 0x1b, 0xe4, 0x1e, 0xf8, 0x47, 0x24, 0x2b, 0xe5,
  0x0c, 0xbc, 0x01, 0x1a, 0xed, 0xf8, 0x29, 0x2f, 0x44, 0x06, 0x1c, 0xde,
  0x2b, 0xe9, 0x15, 0x12, 0x2e, 0x0e, 0xf7, 0xfd, 0xf4, 0xf3, 0xf9, 0x4f,
  0xbf, 0xe7, 0xcd, 0x04, 0xdb, 0x0f, 0x23, 0xf8, 0x2d, 0x15, 0xf1, 0xec,
  0x0f, 0x26, 0x16, 0xf7, 0xe2, 0xe7, 0xdc, 0x16, 0xc7, 0xf9, 0x14, 0x15,
  0x0d, 0xe7, 0xe9, 0xeb, 0xed, 0x14, 0x1b, 0x31, 0x1e, 0x19, 0x0a, 0x20,
  0xe1, 0x1e, 0x40, 0xc5, 0x00, 0xd6, 0xe7, 0xfc, 0xdc, 0x03, 0x0d, 0x22,
  0xd6, 0x34, 0x05, 0xe6, 0xe4, 0xfe, 0x05, 0xdc, 0xea, 0xec, 0xf2, 0x24,
  0xe2, 0x02, 0x3a, 0x6e, 0xb3, 0xf0, 0xde, 0x2b, 0xee, 0x22, 0xdd, 0xe9,
  0x26, 0x34, 0xe2, 0xe9, 0x19, 0x26, 0x1e, 0xf6, 0x09, 0xf9, 0xeb, 0xc7,
  0x0f, 0x2a, 0x17, 0xd6, 0xe6, 0xf2, 0x0b, 0xf7, 0x15, 0x13, 0x1e, 0x13,
  0xea, 0xfe, 0x3e, 0x1a, 0x01, 0xdf, 0xf1, 0xd1, 0x02, 0xf0, 0xce, 0x0c,
  0x0a, 0xfe, 0x08, 0x28, 0xf5, 0xe5, 0x29, 0xf7, 0xd1, 0x0d, 0x12, 0xf9,
  0xf3, 0xdf, 0xed, 0xdf, 0xd5, 0xf6, 0xd6, 0x17, 0xd1, 0xf6, 0xcf, 0x2d,
  0x07, 0x01, 0xe6, 0xe2, 0x0f, 0x1a, 0xde, 0xe0, 0xf4, 0xfa, 0x07, 0xc4,
  0xd2, 0xd4, 0xe6, 0xda, 0xf5, 0xd6, 0xdc, 0xfd, 0xdc, 0x02, 0x0a, 0x05,
  0xf6, 0x1c, 0x28, 0x31, 0xec, 0x0a, 0x1d, 0xfc, 0x0a, 0x01, 0x0d, 0xfb,
  0xf3, 0xec, 0xe8, 0xff, 0x23, 0x19, 0xfe, 0x14, 0x05, 0xc0, 0xef, 0x42,
  0x17, 0xc0, 0xf4, 0xf0, 0xd1, 0xc0, 0x13, 0xe9, 0x06, 0x13, 0xf4, 0x7f,
  0xba, 0xc7, 0xdd, 0x12, 0x1d, 0x03, 0xed, 0xfc, 0x0e, 0x18, 0xdb, 0xee,
  0x0d, 0x18, 0x26, 0x0c, 0xd1, 0xe5, 0xce, 0xf5, 0xfc, 0x12, 0x01, 0xd5,
  0xf8, 0xe7, 0xf7, 0x0f, 0x14, 0xfc, 0x10, 0x24, 0xdd, 0x1f, 0x05, 0x1f,
  0xbd, 0xcd, 0x10, 0x13, 0xf3, 0xf7, 0xac, 0xf8, 0xe4, 0x0d, 0x20, 0x52,
  0x1a, 0x0e, 0xf8, 0x1b, 0xe4, 0xce, 0x14, 0x20, 0xf5, 0xe9, 0x15, 0xef,
  0xe9, 0x16, 0x0e, 0x42, 0xc7, 0xe8, 0xe9, 0x21, 0x1d, 0xfc, 0x16, 0xdc,
  0x27, 0x32, 0xdf, 0xef, 0xf4, 0x0c, 0x07, 0xf4, 0xf5, 0x04, 0x1b, 0xf3,
  0xcc, 0xda, 0xda, 0xdb, 0xec, 0xe2, 0xcf, 0x00, 0x2e, 0x12, 0xfb, 0x05,
  0xef, 0xdd, 0xf3, 0x1f, 0x19, 0xf6, 0x0e, 0xd8, 0xd1, 0xfe, 0xbd, 0x1a,
  0x0b, 0x06, 0xf3, 0xed, 0x4c, 0xf0, 0x2d, 0x17, 0xf4, 0x31, 0xfc, 0x09,
  0x1c, 0x0d, 0x22, 0xf4, 0x0b, 0x00, 0xef, 0x12, 0xd5, 0xf7, 0xf1, 0xe5,
  0x14, 0x14, 0xdf, 0xf1, 0x1e, 0xef, 0xeb, 0xfb, 0xd0, 0x02, 0x29, 0xdd,
  0xf0, 0xf3, 0xda, 0x29, 0xf1, 0xbb, 0x04, 0xde, 0x07, 0x10, 0xdd, 0x05,
  0x15, 0x06, 0x2c, 0xfc, 0xfb, 0x20, 0xf0, 0x09, 0xe9, 0x1a, 0xf4, 0xfb,
  0xc8, 0xf8, 0xf0, 0x0b, 0x12, 0x17, 0x0a, 0xfe, 0x94, 0x14, 0xdc, 0x0f,
  0xf4, 0xed, 0xe4, 0xfa, 0xf3, 0x04, 0xf2, 0x02, 0xe8, 0x01, 0x1c, 0xcd,
  0xf1, 0xfc, 0xe9, 0xea, 0x1f, 0x0a, 0x25, 0xfb, 0x22, 0x1d, 0xee, 0x09,
  0x00, 0x14, 0x05, 0xc3, 0xfe, 0xf3, 0xce, 0xec, 0xc9, 0xf4, 0xea, 0x1e,
  0xf5, 0x09, 0xe3, 0x03, 0x24, 0x18, 0x30, 0xf0, 0xd8, 0x05, 0x10, 0xf9,
  0x60, 0xfb, 0xfe, 0xf4, 0xed, 0x1e, 0xfe, 0x05, 0xd7, 0x00, 0xfb, 0xd3,
  0xa9, 0x17, 0xd9, 0x22, 0x0b, 0x0d, 0x04, 0x0b, 0xcd, 0x08, 0xff, 0x6f,
  0xfa, 0xff, 0xec, 0xaf, 0xf4, 0xd6, 0xd6, 0xe5, 0x10, 0xfc, 0xf8, 0x38,
  0x0e, 0xfe, 0x16, 0xfc, 0xda, 0xe3, 0x26, 0xc0, 0x11, 0xf7, 0xf8, 0x0b,
  0x0a, 0x26, 0xda, 0xf3, 0x00, 0xeb, 0x0b, 0x31, 0x1f, 0x14, 0x21, 0xcf,
  0x1f, 0xf8, 0xd0, 0x00, 0xd6, 0x0c, 0x40, 0xfc, 0xf9, 0x1a, 0xfb, 0x05,
  0x12, 0x14, 0xfd, 0xd3, 0x30, 0x4d, 0x28, 0xf7, 0xce, 0x0b, 0x32, 0x36,
  0xf8, 0x31, 0x26, 0xff, 0xc5, 0x13, 0x30, 0xca, 0xd8, 0x24, 0xf3, 0xf2,
  0x56, 0x1d, 0xf5, 0xe8, 0x0f, 0xf5, 0xd9, 0xe5, 0xf4, 0xc6, 0xff, 0xf7,
  0x02, 0x05, 0xe9, 0xec, 0xfb, 0x1d, 0xfe, 0xce, 0xf9, 0xf6, 0xf6, 0x1f,
  0x0c, 0xfa, 0x02, 0x14, 0xf7, 0xde, 0x0d, 0xe5, 0x1f, 0xf2, 0x0e, 0xff,
  0x21, 0x09, 0x3d, 0xd6, 0xdf, 0xe6, 0xfb, 0xfa, 0xd7, 0xff, 0xd6, 0x26,
  0x03, 0x0d, 0xf1, 0x17, 0x02, 0xff, 0xda, 0xe1, 0x10, 0x22, 0x06, 0x1c,
  0xfb, 0x06, 0x43, 0xed, 0xf5, 0x40, 0x07, 0xd0, 0xfa, 0x10, 0x08, 0xf4,
  0x0d, 0xde, 0xfd, 0x3a, 0x12, 0xf2, 0xf4, 0x1b, 0xf4, 0x39, 0x09, 0x16,
  0x09, 0xd1, 0x06, 0x06, 0x0d, 0xe2, 0x06, 0x18, 0xed, 0xe7, 0x11, 0x05,
  0x37, 0x0a, 0x1a, 0xf8, 0x02, 0x11, 0xf1, 0xe9, 0xfb, 0xfd, 0x0e, 0xfa,
  0x0f, 0x01, 0xdd, 0xee, 0x04, 0x12, 0xfe, 0x52, 0xfa, 0x00, 0xe9, 0xed,
  0x0c, 0x20, 0x1b, 0xc0, 0x01, 0x19, 0x36, 0xf4, 0x38, 0x30, 0x00, 0x04,
  0x05, 0x21, 0x14, 0xf7, 0x12, 0xcc, 0x0c, 0x46, 0xf6, 0xfe, 0xfb, 0xe0,
  0x04, 0x3f, 0x19, 0x03, 0x10, 0xfd, 0xff, 0xfb, 0xf4, 0xeb, 0x0f, 0x14,
  0x0e, 0xef, 0x12, 0x11, 0x1f, 0xea, 0x11, 0x0c, 0x22, 0x0d, 0x1b, 0xf6,
  0xe2, 0x09, 0x0f, 0x25, 0xd4, 0xf3, 0xd6, 0xf3, 0xff, 0x1c, 0xdf, 0x1a,
  0xee, 0x05, 0xce, 0xcc, 0xf9, 0xf6, 0xee, 0x93, 0x11, 0x10, 0x2e, 0xcf,
  0x10, 0xe7, 0xfd, 0x0b, 0xed, 0x26, 0x07, 0xf3, 0xfc, 0xb8, 0x0c, 0x4d,
  0x01, 0xea, 0xfd, 0x01, 0xf9, 0xf7, 0x24, 0xfa, 0x18, 0xe4, 0x19, 0x06,
  0x1f, 0xe8, 0x00, 0xcb, 0x0d, 0xea, 0x0c, 0xfc, 0x1a, 0xff, 0x12, 0xf5,
  0x0a, 0xfb, 0x04, 0xde, 0xf1, 0x0d, 0x07, 0x09, 0x1b, 0xf8, 0x22, 0x08,
  0x11, 0x0b, 0xfe, 0xf2, 0xd0, 0xf3, 0xed, 0xf0, 0x03, 0x06, 0xfe, 0xd2,
  0x0f, 0x0d, 0x39, 0xe2, 0x07, 0x38, 0x14, 0x20, 0x09, 0x2c, 0x1c, 0x0a,
  0x12, 0xb3, 0xe9, 0x3f, 0x1c, 0xfa, 0xfd, 0x0d, 0xfb, 0x23, 0x2b, 0xf4,
  0x12, 0x00, 0xf4, 0xfc, 0x0c, 0x0a, 0xf6, 0xf7, 0x00, 0xfd, 0x1d, 0xfd,
  0xce, 0xde, 0xd9, 0xfa, 0xf6, 0x18, 0x09, 0xd1, 0x03, 0xf2, 0xec, 0xd2,
  0xdb, 0x06, 0xf7, 0x21, 0xfe, 0x33, 0xf4, 0xed, 0xfa, 0x00, 0x01, 0x1b,
  0xe0, 0x07, 0x0a, 0xb2, 0x0c, 0x27, 0x44, 0xf9, 0x23, 0x04, 0xe3, 0x1d,
  0xf8, 0x1d, 0x14, 0x00, 0xff, 0xbb, 0x07, 0x21, 0x10, 0xef, 0x17, 0x01,
  0xff, 0x15, 0x1b, 0xf7, 0xee, 0x08, 0x1e, 0x1e, 0x1e, 0x04, 0x01, 0xe7,
  0x0b, 0xe2, 0x00, 0x0c, 0x45, 0xf3, 0xf8, 0xf7, 0xf0, 0xf2, 0x1c, 0xfc,
  0x0f, 0xf6, 0xfa, 0xd8, 0xfe, 0xe5, 0xec, 0x1f, 0x35, 0x02, 0xf3, 0x19,
  0x16, 0x04, 0xf5, 0xd2, 0x2b, 0x04, 0xdd, 0xab, 0x11, 0xfe, 0x47, 0x10,
  0xff, 0x04, 0xe2, 0x0b, 0xf1, 0x11, 0x1a, 0x0c, 0x2d, 0xbe, 0x12, 0x31,
  0xe3, 0xf7, 0x0f, 0x1a, 0x39, 0xe1, 0xf8, 0x12, 0x08, 0xf5, 0xfe, 0x07,
  0xe4, 0x01, 0x0d, 0xcd, 0x11, 0xe4, 0xe6, 0xef, 0xf0, 0x08, 0xf6, 0xfc,
  0x09, 0xef, 0xeb, 0xce, 0x10, 0x09, 0xfd, 0xf2, 0x1f, 0x19, 0xf2, 0x28,
  0x22, 0xf0, 0x03, 0x11, 0x01, 0x10, 0x09, 0x08, 0x08, 0xf1, 0x1c, 0x0a,
  0x0f, 0xfb, 0x27, 0x01, 0x0e, 0x39, 0x04, 0x1b, 0x07, 0x13, 0x10, 0x07,
  0x1e, 0xea, 0xf4, 0x14, 0x25, 0xfa, 0x0c, 0xfe, 0x00, 0x0f, 0x0b, 0x0a,
  0x0b, 0x07, 0x14, 0xf4, 0xf2, 0x16, 0xf4, 0xc7, 0x04, 0xf0, 0xe9, 0x02,
  0x02, 0x0f, 0xf7, 0xe0, 0x15, 0xfe, 0x0b, 0x16, 0x01, 0xe7, 0xf5, 0xd6,
  0x24, 0x0b, 0x08, 0xdc, 0xf6, 0x1d, 0x0a, 0x0b, 0x16, 0x0b, 0x07, 0x2c,
  0x09, 0xf2, 0x19, 0x8d, 0x13, 0x0d, 0x35, 0xdc, 0x00, 0x0d, 0x1a, 0x16,
  0xfb, 0x21, 0x2c, 0xf6, 0x28, 0xcd, 0xe3, 0x11, 0x18, 0xfd, 0xee, 0x1a,
  0x02, 0xf0, 0xdc, 0x03, 0x06, 0xf1, 0x08, 0x1a, 0x02, 0x3e, 0x10, 0xcc,
  0x28, 0xd9, 0xf5, 0xf8, 0x21, 0x0d, 0xf7, 0xf4, 0xfb, 0xe8, 0x09, 0x15,
  0x12, 0xf3, 0xef, 0xc2, 0xd9, 0x24, 0xdd, 0x0a, 0x2e, 0x3a, 0xe9, 0xda,
  0x1b, 0x11, 0x11, 0x11, 0xef, 0xe8, 0x04, 0xcf, 0x17, 0xf4, 0x14, 0xd1,
  0xe8, 0x35, 0x00, 0x25, 0xf4, 0xe8, 0x20, 0xf6, 0x17, 0xcd, 0x10, 0x44,
  0x15, 0xfe, 0xd5, 0x0f, 0x2b, 0x1b, 0x03, 0x08, 0xff, 0xfa, 0x2c, 0x2d,
  0xf4, 0x00, 0x00, 0x03, 0x10, 0x0b, 0x29, 0xea, 0xec, 0xfc, 0xf2, 0x16,
  0x0b, 0xdc, 0xfd, 0xff, 0x05, 0xe9, 0x11, 0xf3, 0xde, 0x11, 0xf3, 0xd7,
  0x1e, 0x09, 0xfc, 0xeb, 0x36, 0x0f, 0x20, 0x3f, 0xdb, 0xf9, 0xfc, 0xea,
  0x0d, 0xeb, 0x0f, 0xee, 0x1b, 0x39, 0x06, 0x0c, 0xfc, 0x0f, 0x1d, 0xf1,
  0x2e, 0xcb, 0xf5, 0x52, 0x38, 0xf9, 0x15, 0x0d, 0x27, 0x23, 0xe3, 0x0b,
  0x04, 0xf0, 0x13, 0x1a, 0x22, 0x10, 0xfc, 0x37, 0x10, 0xf3, 0x20, 0x0e,
  0x0f, 0xdc, 0x22, 0xf8, 0x19, 0xf9, 0xdc, 0xfb, 0xd7, 0xf6, 0xfa, 0x0d,
  0x15, 0xf8, 0xfc, 0xe4, 0x20, 0xf2, 0x0a, 0x0f, 0xfb, 0xf9, 0xfc, 0x26,
  0x02, 0x07, 0x03, 0x28, 0xff, 0xee, 0x25, 0xe7, 0xde, 0x1f, 0xee, 0xfa,
  0xf2, 0x0a, 0x22, 0xd8, 0x1f, 0xd7, 0xd1, 0x35, 0x17, 0xf6, 0x13, 0x06,
  0x2d, 0x0d, 0xf9, 0xff, 0xf8, 0x02, 0x0a, 0x10, 0xe0, 0x00, 0xe8, 0x36,
  0x11, 0xfe, 0x03, 0x06, 0xbd, 0xd9, 0xe4, 0xd6, 0xfc, 0xee, 0xda, 0xfc,
  0x2c, 0xf9, 0x01, 0x25, 0x37, 0xee, 0xf6, 0xed, 0x22, 0xf0, 0x02, 0xdb,
  0x1d, 0xf7, 0xf8, 0xba, 0x02, 0x08, 0x25, 0x5d, 0xfc, 0xda, 0x1f, 0xe2,
  0x06, 0xf0, 0xf4, 0xcf, 0xec, 0x1f, 0xf4, 0xf5, 0x1e, 0xc0, 0xc9, 0x39,
  0x13, 0xff, 0xea, 0xe1, 0xfe, 0xdd, 0x14, 0x03, 0xea, 0xfe, 0xf1, 0xf5,
  0xf4, 0xff, 0xea, 0x60, 0x08, 0xf9, 0x2c, 0x13, 0x12, 0xe7, 0xc0, 0xf6,
  0xfd, 0xf1, 0xda, 0x23, 0xea, 0x08, 0x16, 0x4d, 0xfc, 0xf8, 0x10, 0x03,
  0x08, 0xd3, 0x10, 0xea, 0x20, 0x11, 0x0e, 0xd5, 0xef, 0xef, 0xef, 0x14,
  0xe2, 0xf9, 0xff, 0xff, 0x04, 0x00, 0x00, 0x00, 0x40, 0x00, 0x00, 0x00,
  0x90, 0xfe, 0xff, 0xff, 0xcb, 0xf6, 0xff, 0xff, 0x8e, 0xe3, 0xff, 0xff,
  0x85, 0xee, 0xff, 0xff, 0x0a, 0xf5, 0xff, 0xff, 0x11, 0x04, 0x00, 0x00,
  0x04, 0xf8, 0xff, 0xff, 0x5f, 0xfc, 0xff, 0xff, 0xb4, 0xf1, 0xff, 0xff,
  0xc6, 0xee, 0xff, 0xff, 0xc1, 0xf7, 0xff, 0xff, 0x14, 0xf7, 0xff, 0xff,
  0x3e, 0xe2, 0xff, 0xff, 0x61, 0xe6, 0xff, 0xff, 0x9b, 0xf1, 0xff, 0xff,
  0x10, 0x23, 0x00, 0x00, 0x2e, 0xfa, 0xff, 0xff, 0x04, 0x00, 0x00, 0x00,
  0x80, 0x04, 0x00, 0x00, 0xf8, 0xad, 0xb9, 0xe9, 0xdc, 0xbe, 0xef, 0xd9,
  0x2a, 0xc6, 0xd0, 0xef, 0x18, 0xa6, 0x05, 0xbe, 0x0c, 0xe1, 0x2c, 0x15,
  0x1b, 0x11, 0x0d, 0x53, 0x24, 0xb5, 0xc6, 0xf2, 0xd2, 0x90, 0xdc, 0xb7,
  0x09, 0xbd, 0xee, 0xf9, 0x0c, 0xa4, 0xaa, 0x9c, 0x0e, 0x0c, 0xe4, 0x2c,
  0x2c, 0xe5, 0xe6, 0xe9, 0x36, 0xa5, 0x05, 0xe7, 0xe7, 0xc9, 0xef, 0x81,
  0x31, 0x86, 0xde, 0xea, 0x18, 0xa7, 0x90, 0x9b, 0x13, 0xff, 0xf9, 0x0f,
  0xee, 0xdc, 0xeb, 0x16, 0x29, 0xdb, 0xd0, 0xe5, 0x46, 0xeb, 0x28, 0xc8,
  0xad, 0xdd, 0xf8, 0x2c, 0xaa, 0x23, 0xe5, 0x2c, 0xe2, 0xf5, 0x12, 0x09,
  0x32, 0xd3, 0x2e, 0xcd, 0x22, 0xad, 0xd0, 0x02, 0x47, 0x02, 0xe4, 0xfe,
  0x81, 0x01, 0xe4, 0xe6, 0xa0, 0xf8, 0xf7, 0xd2, 0xb6, 0xf5, 0x49, 0x07,
  0x2e, 0xcc, 0xcb, 0xf9, 0x52, 0x10, 0xef, 0xfe, 0xe5, 0x16, 0xa7, 0xfa,
  0xfc, 0xec, 0x05, 0xbc, 0x34, 0xb9, 0x0e, 0xd0, 0xa6, 0x01, 0x32, 0x27,
  0x57, 0xdf, 0xf1, 0xdb, 0x3f, 0xc5, 0xd4, 0xf8, 0x02, 0x03, 0x84, 0xd4,
  0x35, 0xa5, 0x30, 0x16, 0xfe, 0xe6, 0xa8, 0xc8, 0xb0, 0x05, 0x2b, 0xe7,
  0xe8, 0xbc, 0x16, 0xf1, 0x32, 0xd3, 0xfd, 0xd5, 0xb9, 0xf1, 0xe6, 0xc7,
  0xf8, 0xc1, 0x3a, 0x08, 0xf6, 0xc5, 0xa7, 0xb7, 0xe2, 0x10, 0x11, 0x37,
  0xea, 0xbe, 0xfd, 0x01, 0x0b, 0xf5, 0x08, 0x84, 0x81, 0x75, 0xcf, 0xf6,
  0x41, 0xa6, 0x18, 0x12, 0x28, 0xe4, 0xb7, 0x9d, 0xdc, 0xf5, 0x21, 0x35,
  0xea, 0xae, 0x19, 0xec, 0x81, 0xfd, 0x4b, 0xe9, 0xd5, 0xe1, 0x37, 0x2c,
  0x8e, 0x2d, 0x2c, 0xc5, 0xc4, 0x01, 0x47, 0xe5, 0x01, 0xfb, 0xb5, 0x40,
  0xf5, 0x12, 0x8a, 0xf1, 0x97, 0xe5, 0xeb, 0xbe, 0xc1, 0x9e, 0x30, 0xf1,
  0xa5, 0x30, 0x11, 0x93, 0xd5, 0xed, 0x2a, 0x17, 0x0b, 0x20, 0xd2, 0xfa,
  0x0b, 0xfb, 0xc8, 0x08, 0xa8, 0xb1, 0x15, 0xdb, 0xec, 0x02, 0xd0, 0xd4,
  0x8d, 0xfc, 0x71, 0xe4, 0xf3, 0xb2, 0x42, 0xf8, 0x06, 0xf5, 0xe0, 0xf3,
  0xf2, 0x0a, 0xeb, 0x10, 0xf0, 0xd8, 0x30, 0xf4, 0x00, 0xe6, 0x0c, 0x57,
  0xfe, 0xe1, 0xf8, 0x08, 0xcd, 0xbd, 0x38, 0x53, 0x21, 0xd1, 0x16, 0x21,
  0xdc, 0xcd, 0xf7, 0xed, 0xee, 0x06, 0xca, 0xd7, 0xe5, 0xea, 0xc6, 0xcb,
  0x10, 0xbb, 0xde, 0x0f, 0xc8, 0xfd, 0xd7, 0xfc, 0x13, 0xa5, 0xf4, 0x11,
  0x0b, 0xe5, 0xbd, 0xf5, 0xfa, 0xbf, 0xdb, 0x13, 0xf1, 0xa4, 0xbd, 0xef,
  0xee, 0xa2, 0xae, 0xeb, 0xd9, 0xe0, 0xf7, 0xf7, 0x1a, 0xc6, 0x7f, 0x18,
  0x17, 0xd9, 0xd0, 0xb2, 0xec, 0xec, 0x94, 0x30, 0x02, 0x17, 0xf3, 0x1a,
  0xbc, 0xdb, 0xa9, 0x0e, 0xc0, 0xd6, 0xa7, 0xf2, 0xb0, 0x27, 0x25, 0xd4,
  0x0c, 0x0b, 0xf8, 0xfb, 0xd6, 0x12, 0xb2, 0x4d, 0xf2, 0xfc, 0xde, 0x09,
  0x0c, 0xfc, 0x8d, 0x08, 0xad, 0xd2, 0x8e, 0x81, 0xa1, 0x35, 0xb7, 0xdf,
  0xb4, 0x37, 0xdf, 0x21, 0xad, 0x19, 0xbb, 0x11, 0xe8, 0xe2, 0xde, 0xe2,
  0xcc, 0x22, 0xce, 0xb6, 0xc6, 0xe3, 0xe0, 0xcd, 0xb6, 0x13, 0xaf, 0xe4,
  0xce, 0x0a, 0xd8, 0x37, 0x19, 0xa9, 0xc3, 0x23, 0xc4, 0xd0, 0xba, 0x20,
  0xed, 0xb9, 0xab, 0x93, 0xbf, 0xe1, 0x90, 0xd1, 0xf3, 0xa9, 0xdf, 0x81,
  0xca, 0xde, 0x25, 0xf7, 0x16, 0xc9, 0xc0, 0x15, 0xb0, 0x3f, 0xc3, 0xd0,
  0x05, 0xd2, 0xa5, 0x15, 0x35, 0x1e, 0x1c, 0xef, 0xe6, 0x35, 0xb2, 0xae,
  0x8f, 0x18, 0x2e, 0xcc, 0x19, 0xf1, 0x02, 0x0a, 0x37, 0x0d, 0x0e, 0x4a,
  0x03, 0x25, 0x16, 0xe9, 0xf4, 0x1e, 0xeb, 0xf3, 0xe0, 0x18, 0xb7, 0xf5,
  0xe4, 0x10, 0xcb, 0x16, 0xac, 0x10, 0x0f, 0xf4, 0x01, 0xf3, 0x2f, 0xf6,
  0x2e, 0xf7, 0x25, 0x11, 0x24, 0x07, 0x05, 0x03, 0xe8, 0x0f, 0xd3, 0x0e,
  0x10, 0x27, 0xf0, 0x17, 0xe2, 0x29, 0x19, 0xae, 0x24, 0xef, 0x24, 0xcf,
  0xf3, 0xad, 0x35, 0xfd, 0x27, 0xbd, 0xdf, 0x01, 0xf3, 0xe5, 0xd7, 0x46,
  0x15, 0x9f, 0x02, 0xfb, 0xfe, 0x07, 0x19, 0xdb, 0x0f, 0xbe, 0xd1, 0xf2,
  0x03, 0x9d, 0xbe, 0x0b, 0xde, 0x81, 0x9c, 0xc2, 0xe5, 0x8f, 0x44, 0xfb,
  0x09, 0xc2, 0xb8, 0xcd, 0xd2, 0xe0, 0xc8, 0x2e, 0xd7, 0x16, 0xc5, 0xd9,
  0xf7, 0xf8, 0xf2, 0x64, 0x2f, 0x5f, 0x01, 0x4a, 0x07, 0x16, 0x12, 0xf2,
  0xee, 0xee, 0x06, 0x14, 0xb5, 0xc3, 0xad, 0xcb, 0x92, 0xc3, 0xe5, 0xff,
  0xeb, 0x1d, 0xfd, 0x2e, 0x0e, 0x2a, 0xdf, 0x1d, 0x16, 0x0f, 0xe7, 0xdb,
  0xda, 0x0c, 0x09, 0x1a, 0x81, 0xce, 0xe3, 0x9f, 0x8b, 0xc6, 0xca, 0xae,
  0xaa, 0x06, 0xdd, 0x06, 0xf2, 0x2f, 0x0e, 0x22, 0xf4, 0x12, 0xca, 0xd3,
  0xd1, 0x01, 0xb6, 0xfb, 0xf7, 0xfa, 0xe3, 0x34, 0x29, 0xff, 0x56, 0x3d,
  0xb8, 0xef, 0x07, 0x32, 0x0d, 0x04, 0x1a, 0xe3, 0x2d, 0xbc, 0xa0, 0xf1,
  0x1d, 0xea, 0x05, 0x01, 0x2b, 0xb2, 0xc1, 0x30, 0x27, 0xcc, 0x09, 0x03,
  0x8d, 0xe6, 0x18, 0xd7, 0xe1, 0xed, 0x14, 0xf8, 0x0d, 0xc4, 0xa5, 0xd6,
  0x08, 0xe5, 0x81, 0xbd, 0x10, 0xe4, 0xf1, 0x0d, 0x58, 0x17, 0xcf, 0xdf,
  0xad, 0x17, 0x25, 0xd6, 0xf5, 0xdc, 0xf8, 0xd0, 0x04, 0xe1, 0xa3, 0xcd,
  0xed, 0x15, 0xdc, 0xbb, 0x07, 0x16, 0xca, 0x17, 0x1a, 0xec, 0xd9, 0x13,
  0x31, 0xc0, 0xf1, 0x1e, 0x0f, 0x12, 0xfc, 0x10, 0xdc, 0x05, 0x1b, 0xb1,
  0x08, 0xf3, 0x2f, 0xf3, 0x01, 0xfa, 0xde, 0x10, 0x22, 0xf8, 0xf1, 0xe9,
  0xfb, 0xa0, 0xd8, 0x14, 0x11, 0xbc, 0xae, 0xad, 0x9a, 0x10, 0x0d, 0xbd,
  0xed, 0x97, 0xf4, 0xd7, 0x05, 0xe7, 0xce, 0x19, 0xe6, 0x0a, 0x08, 0xf1,
  0x22, 0x9d, 0xd9, 0x16, 0x0f, 0xd3, 0xbe, 0x81, 0xd1, 0xf0, 0x33, 0xe5,
  0xf4, 0x93, 0xfa, 0xc9, 0x34, 0xa7, 0x18, 0x45, 0xfc, 0xe3, 0xa1, 0xbf,
  0x17, 0xfe, 0xf9, 0xd4, 0xd2, 0xf6, 0x20, 0x0a, 0xb9, 0x0a, 0x05, 0x0d,
  0xfe, 0xf8, 0x1b, 0x23, 0x02, 0xb4, 0xf3, 0x36, 0xef, 0xb2, 0x91, 0xbd,
  0xc9, 0x21, 0xe2, 0xdd, 0x0a, 0xec, 0x14, 0xec, 0xcc, 0x0e, 0xe3, 0xf8,
  0x30, 0x1e, 0xf1, 0xfc, 0x13, 0x81, 0xaa, 0x17, 0x34, 0xf8, 0xa9, 0xe1,
  0xed, 0xdc, 0xee, 0xec, 0xfd, 0xe0, 0x17, 0xcc, 0xb7, 0x06, 0x1b, 0x34,
  0x58, 0xd9, 0x33, 0x3b, 0x38, 0xd4, 0xed, 0x11, 0x3d, 0x1f, 0xc5, 0xa1,
  0xfe, 0x02, 0x46, 0x81, 0xfd, 0x03, 0xfd, 0xdd, 0x0d, 0xe0, 0xef, 0x0b,
  0xe3, 0xc6, 0x0f, 0xf2, 0xe9, 0x2d, 0x14, 0x20, 0xec, 0x1b, 0x1f, 0xda,
  0xb2, 0x1a, 0x21, 0x96, 0x11, 0xb5, 0xe3, 0x2b, 0xd0, 0xe5, 0xb5, 0x13,
  0xe0, 0xed, 0xd0, 0x0e, 0xe1, 0xe2, 0x7b, 0x0f, 0xf2, 0xcb, 0x17, 0xf7,
  0xa3, 0x00, 0xca, 0xd2, 0x9b, 0x88, 0x11, 0xfa, 0x0e, 0x00, 0xe6, 0x22,
  0xdc, 0xc0, 0x07, 0xdd, 0x9e, 0x04, 0xe6, 0xd1, 0xa5, 0xd8, 0x40, 0x1b,
  0x27, 0x05, 0xda, 0xf0, 0xe6, 0x00, 0xec, 0x0e, 0x21, 0x1c, 0xa6, 0xa2,
  0xe2, 0x1b, 0xd5, 0x05, 0xd1, 0x16, 0x7f, 0xc8, 0x11, 0xe5, 0x47, 0x53,
  0x11, 0xfa, 0xe7, 0xf0, 0xdd, 0x09, 0x11, 0x17, 0x0c, 0x14, 0x8d, 0xa0,
  0xc1, 0x13, 0xbc, 0x17, 0x9f, 0xfa, 0xf3, 0x16, 0xee, 0x09, 0x31, 0xe0,
  0x16, 0x12, 0xd6, 0xe6, 0xfd, 0x17, 0xef, 0x02, 0x0e, 0x1a, 0xcd, 0x83,
  0x96, 0xfc, 0xfc, 0x13, 0xe4, 0xfb, 0xdd, 0xcb, 0xc3, 0x45, 0xf9, 0xc4,
  0xd4, 0x46, 0xfd, 0xf5, 0x04, 0x4a, 0xe2, 0x2b, 0xca, 0xf9, 0x0f, 0xf5,
  0xdd, 0xda, 0xfe, 0x01, 0xe1, 0xe2, 0x1e, 0xb7, 0xe6, 0x28, 0x09, 0x1c,
  0xbb, 0xf1, 0xe6, 0x86, 0xa6, 0xf3, 0x60, 0x1f, 0xfa, 0xe2, 0xb4, 0xfb,
  0xe0, 0x11, 0x0d, 0xdd, 0xc2, 0xe7, 0x81, 0xb3, 0x99, 0xf2, 0xe0, 0xf7,
  0x50, 0xfe, 0xf9, 0xdc, 0x04, 0x0b, 0xdd, 0x4e, 0x11, 0xff, 0x1d, 0xe6,
  0x0e, 0xfa, 0xbe, 0x1f, 0xc0, 0xb6, 0xb1, 0xeb, 0xb9, 0xb8, 0x8f, 0xe5,
  0x81, 0x12, 0xcf, 0xc3, 0x8f, 0x92, 0xdc, 0xd7, 0xd4, 0xcf, 0xc8, 0xcf,
  0xab, 0xd8, 0xcb, 0xd9, 0xcb, 0xd3, 0x8f, 0xa2, 0xb3, 0x9d, 0xa6, 0x8e,
  0xc1, 0x2c, 0xd3, 0xe7, 0x9d, 0xb3, 0xef, 0x0c, 0xed, 0x15, 0xa2, 0xfd,
  0xcd, 0x00, 0x11, 0xfa, 0xd3, 0xf8, 0xc8, 0xac, 0xa9, 0xa6, 0xd1, 0xbe,
  0x2e, 0x1f, 0xa3, 0x03, 0xee, 0xc4, 0xdb, 0xf8, 0x1b, 0xcb, 0x98, 0xfa,
  0xdc, 0xf6, 0xe5, 0x00, 0xba, 0xfe, 0xff, 0xff, 0x04, 0x00, 0x00, 0x00,
  0x20, 0x00, 0x00, 0x00, 0xbd, 0xea, 0xff, 0xff, 0xf5, 0xf5, 0xff, 0xff,
  0x89, 0xd7, 0xff, 0xff, 0x85, 0xe8, 0xff, 0xff, 0xa5, 0xe7, 0xff, 0xff,
  0xe7, 0xf8, 0xff, 0xff, 0x0c, 0xec, 0xff, 0xff, 0xe9, 0xf8, 0xff, 0xff,
  0xe6, 0xfe, 0xff, 0xff, 0x04, 0x00, 0x00, 0x00, 0x48, 0x00, 0x00, 0x00,
  0x2f, 0x49, 0xfd, 0x7f, 0x4e, 0x10, 0x4f, 0x3e, 0x16, 0x6e, 0xb7, 0xc8,
  0xda, 0xf5, 0x7f, 0x91, 0xba, 0xe1, 0x26, 0x81, 0x9f, 0x65, 0xa6, 0xa0,
  0xbd, 0xc0, 0xc1, 0xe2, 0x6b, 0xd0, 0xb0, 0x7b, 0xca, 0xae, 0x7f, 0xca,
  0x55, 0xe9, 0xb1, 0x2e, 0x3c, 0x83, 0xfa, 0x7f, 0x98, 0xe5, 0x33, 0x09,
  0x31, 0x42, 0xf1, 0xf6, 0x81, 0x1a, 0xaf, 0xc9, 0xc7, 0x9f, 0xdf, 0x43,
  0x7f, 0xd4, 0xbe, 0xcf, 0x81, 0x17, 0x2b, 0x3f, 0xf2, 0xd9, 0x38, 0x06,
  0x3a, 0xff, 0xff, 0xff, 0x04, 0x00, 0x00, 0x00, 0x08, 0x00, 0x00, 0x00,
  0xff, 0xff, 0xff, 0xff, 0x40, 0x03, 0x00, 0x00, 0x4e, 0xff, 0xff, 0xff,
  0x04, 0x00, 0x00, 0x00, 0x10, 0x00, 0x00, 0x00, 0x01, 0x00, 0x00, 0x00,
  0x31, 0x00, 0x00, 0x00, 0x0d, 0x00, 0x00, 0x00, 0x01, 0x00, 0x00, 0x00,
  0xa4, 0xf4, 0xff, 0xff, 0xa8, 0xf4, 0xff, 0xff, 0x0f, 0x00, 0x00, 0x00,
  0x4d, 0x4c, 0x49, 0x52, 0x20, 0x43, 0x6f, 0x6e, 0x76, 0x65, 0x72, 0x74,
  0x65, 0x64, 0x2e, 0x00, 0x01, 0x00, 0x00, 0x00, 0x14, 0x00, 0x00, 0x00,
  0x00, 0x00, 0x0e, 0x00, 0x18, 0x00, 0x14, 0x00, 0x10, 0x00, 0x0c, 0x00,
  0x08, 0x00, 0x04, 0x00, 0x0e, 0x00, 0x00, 0x00, 0x14, 0x00, 0x00, 0x00,
  0x1c, 0x00, 0x00, 0x00, 0x18, 0x02, 0x00, 0x00, 0x1c, 0x02, 0x00, 0x00,
  0x20, 0x02, 0x00, 0x00, 0x04, 0x00, 0x00, 0x00, 0x6d, 0x61, 0x69, 0x6e,
  0x00, 0x00, 0x00, 0x00, 0x08, 0x00, 0x00, 0x00, 0xdc, 0x01, 0x00, 0x00,
  0x80, 0x01, 0x00, 0x00, 0x20, 0x01, 0x00, 0x00, 0xdc, 0x00, 0x00, 0x00,
  0x9c, 0x00, 0x00, 0x00, 0x78, 0x00, 0x00, 0x00, 0x40, 0x00, 0x00, 0x00,
  0x04, 0x00, 0x00, 0x00, 0xaa, 0xfe, 0xff, 0xff, 0x1c, 0x00, 0x00, 0x00,
  0x00, 0x00, 0x00, 0x09, 0x1c, 0x00, 0x00, 0x00, 0x20, 0x00, 0x00, 0x00,
  0x04, 0x00, 0x00, 0x00, 0x00, 0x00, 0x06, 0x00, 0x08, 0x00, 0x04, 0x00,
  0x06, 0x00, 0x00, 0x00, 0x00, 0x00, 0x80, 0x3f, 0x01, 0x00, 0x00, 0x00,
  0x10, 0x00, 0x00, 0x00, 0x01, 0x00, 0x00, 0x00, 0x0f, 0x00, 0x00, 0x00,
  0xe2, 0xfe, 0xff, 0xff, 0x14, 0x00, 0x00, 0x00, 0x00, 0x00, 0x00, 0x08,
  0x10, 0x00, 0x00, 0x00, 0x14, 0x00, 0x00, 0x00, 0x03, 0x00, 0x00, 0x00,
  0x70, 0xf5, 0xff, 0xff, 0x01, 0x00, 0x00, 0x00, 0x0f, 0x00, 0x00, 0x00,
  0x03, 0x00, 0x00, 0x00, 0x0e, 0x00, 0x00, 0x00, 0x07, 0x00, 0x00, 0x00,
  0x08, 0x00, 0x00, 0x00, 0xba, 0xfe, 0xff, 0xff, 0x08, 0x00, 0x00, 0x00,
  0x0c, 0x00, 0x00, 0x00, 0x01, 0x00, 0x00, 0x00, 0x0e, 0x00, 0x00, 0x00,
  0x02, 0x00, 0x00, 0x00, 0x0d, 0x00, 0x00, 0x00, 0x02, 0x00, 0x00, 0x00,
  0x36, 0xff, 0xff, 0xff, 0x14, 0x00, 0x00, 0x00, 0x00, 0x00, 0x00, 0x05,
  0x20, 0x00, 0x00, 0x00, 0x24, 0x00, 0x00, 0x00, 0x02, 0x00, 0x00, 0x00,
  0x82, 0xff, 0xff, 0xff, 0x02, 0x00, 0x00, 0x00, 0x02, 0x00, 0x00, 0x00,
  0x02, 0x00, 0x00, 0x00, 0x02, 0x00, 0x00, 0x00, 0x01, 0x00, 0x00, 0x00,
  0x0d, 0x00, 0x00, 0x00, 0x01, 0x00, 0x00, 0x00, 0x0c, 0x00, 0x00, 0x00,
  0x72, 0xff, 0xff, 0xff, 0x14, 0x00, 0x00, 0x00, 0x00, 0x00, 0x00, 0x01,
  0x1c, 0x00, 0x00, 0x00, 0x20, 0x00, 0x00, 0x00, 0x01, 0x00, 0x00, 0x00,
  0x64, 0xff, 0xff, 0xff, 0x00, 0x00, 0x00, 0x01, 0x01, 0x00, 0x00, 0x00,
  0x01, 0x00, 0x00, 0x00, 0x01, 0x00, 0x00, 0x00, 0x0c, 0x00, 0x00, 0x00,
  0x03, 0x00, 0x00, 0x00, 0x0b, 0x00, 0x00, 0x00, 0x05, 0x00, 0x00, 0x00,
  0x06, 0x00, 0x00, 0x00, 0xb2, 0xff, 0xff, 0xff, 0x24, 0x00, 0x00, 0x00,
  0x00, 0x00, 0x00, 0x05, 0x30, 0x00, 0x00, 0x00, 0x34, 0x00, 0x00, 0x00,
  0x02, 0x00, 0x00, 0x00, 0x00, 0x00, 0x0e, 0x00, 0x14, 0x00, 0x00, 0x00,
  0x10, 0x00, 0x0c, 0x00, 0x08, 0x00, 0x04, 0x00, 0x0e, 0x00, 0x00, 0x00,
  0x02, 0x00, 0x00, 0x00, 0x02, 0x00, 0x00, 0x00, 0x02, 0x00, 0x00, 0x00,
  0x02, 0x00, 0x00, 0x00, 0x01, 0x00, 0x00, 0x00, 0x0b, 0x00, 0x00, 0x00,
  0x01, 0x00, 0x00, 0x00, 0x0a, 0x00, 0x00, 0x00, 0x00, 0x00, 0x0e, 0x00,
  0x18, 0x00, 0x14, 0x00, 0x10, 0x00, 0x0c, 0x00, 0x0b, 0x00, 0x04, 0x00,
  0x0e, 0x00, 0x00, 0x00, 0x20, 0x00, 0x00, 0x00, 0x00, 0x00, 0x00, 0x01,
  0x28, 0x00, 0x00, 0x00, 0x2c, 0x00, 0x00, 0x00, 0x01, 0x00, 0x00, 0x00,
  0x0c, 0x00, 0x10, 0x00, 0x00, 0x00, 0x0c, 0x00, 0x08, 0x00, 0x07, 0x00,
  0x0c, 0x00, 0x00, 0x00, 0x00, 0x00, 0x00, 0x01, 0x01, 0x00, 0x00, 0x00,
  0x01, 0x00, 0x00, 0x00, 0x01, 0x00, 0x00, 0x00, 0x0a, 0x00, 0x00, 0x00,
  0x03, 0x00, 0x00, 0x00, 0x09, 0x00, 0x00, 0x00, 0x03, 0x00, 0x00, 0x00,
  0x04, 0x00, 0x00, 0x00, 0x00, 0x00, 0x0a, 0x00, 0x0c, 0x00, 0x00, 0x00,
  0x08, 0x00, 0x04, 0x00, 0x0a, 0x00, 0x00, 0x00, 0x08, 0x00, 0x00, 0x00,
  0x0c, 0x00, 0x00, 0x00, 0x01, 0x00, 0x00, 0x00, 0x09, 0x00, 0x00, 0x00,
  0x02, 0x00, 0x00, 0x00, 0x00, 0x00, 0x00, 0x00, 0x01, 0x00, 0x00, 0x00,
  0x01, 0x00, 0x00, 0x00, 0x10, 0x00, 0x00, 0x00, 0x01, 0x00, 0x00, 0x00,
  0x00, 0x00, 0x00, 0x00, 0x11, 0x00, 0x00, 0x00, 0x38, 0x09, 0x00, 0x00,
  0xd4, 0x08, 0x00, 0x00, 0x8c, 0x08, 0x00, 0x00, 0xc8, 0x07, 0x00, 0x00,
  0x1c, 0x07, 0x00, 0x00, 0xf8, 0x05, 0x00, 0x00, 0xec, 0x04, 0x00, 0x00,
  0x80, 0x04, 0x00, 0x00, 0x2c, 0x04, 0x00, 0x00, 0xb8, 0x03, 0x00, 0x00,
  0x0c, 0x03, 0x00, 0x00, 0x90, 0x02, 0x00, 0x00, 0xdc, 0x01, 0x00, 0x00,
  0x60, 0x01, 0x00, 0x00, 0xf4, 0x00, 0x00, 0x00, 0x70, 0x00, 0x00, 0x00,
  0x04, 0x00, 0x00, 0x00, 0x1a, 0xf7, 0xff, 0xff, 0x14, 0x00, 0x00, 0x00,
  0x34, 0x00, 0x00, 0x00, 0x11, 0x00, 0x00, 0x00, 0x00, 0x00, 0x00, 0x09,
  0x48, 0x00, 0x00, 0x00, 0x0c, 0xf7, 0xff, 0xff, 0x08, 0x00, 0x00, 0x00,
  0x14, 0x00, 0x00, 0x00, 0x01, 0x00, 0x00, 0x00, 0x80, 0xff, 0xff, 0xff,
  0xff, 0xff, 0xff, 0xff, 0x00, 0x00, 0x00, 0x00, 0x01, 0x00, 0x00, 0x00,
  0x00, 0x00, 0x80, 0x3b, 0x19, 0x00, 0x00, 0x00, 0x53, 0x74, 0x61, 0x74,
  0x65, 0x66, 0x75, 0x6c, 0x50, 0x61, 0x72, 0x74, 0x69, 0x74, 0x69, 0x6f,
  0x6e, 0x65, 0x64, 0x43, 0x61, 0x6c, 0x6c, 0x3a, 0x30, 0x00, 0x00, 0x00,
  0x02, 0x00, 0x00, 0x00, 0x01, 0x00, 0x00, 0x00, 0x03, 0x00, 0x00, 0x00,
  0x82, 0xf7, 0xff, 0xff, 0x14, 0x00, 0x00, 0x00, 0x34, 0x00, 0x00, 0x00,
  0x10, 0x00, 0x00, 0x00, 0x00, 0x00, 0x00, 0x09, 0x60, 0x00, 0x00, 0x00,
  0x74, 0xf7, 0xff, 0xff, 0x08, 0x00, 0x00, 0x00, 0x14, 0x00, 0x00, 0x00,
  0x01, 0x00, 0x00, 0x00, 0x03, 0x00, 0x00, 0x00, 0x00, 0x00, 0x00, 0x00,
  0x00, 0x00, 0x00, 0x00, 0x01, 0x00, 0x00, 0x00, 0xb8, 0x35, 0xb3, 0x3d,
  0x32, 0x00, 0x00, 0x00, 0x73, 0x65, 0x71, 0x75, 0x65, 0x6e, 0x74, 0x69,
  0x61, 0x6c, 0x2f, 0x79, 0x5f, 0x70, 0x72, 0x65, 0x64, 0x2f, 0x4d, 0x61,
  0x74, 0x4d, 0x75, 0x6c, 0x3b, 0x73, 0x65, 0x71, 0x75, 0x65, 0x6e, 0x74,
  0x69, 0x61, 0x6c, 0x2f, 0x79, 0x5f, 0x70, 0x72, 0x65, 0x64, 0x2f, 0x42,
  0x69, 0x61, 0x73, 0x41, 0x64, 0x64, 0x00, 0x00, 0x02, 0x00, 0x00, 0x00,
  0x01, 0x00, 0x00, 0x00, 0x03, 0x00, 0x00, 0x00, 0x02, 0xf8, 0xff, 0xff,
  0x14, 0x00, 0x00, 0x00, 0x34, 0x00, 0x00, 0x00, 0x0f, 0x00, 0x00, 0x00,
  0x00, 0x00, 0x00, 0x09, 0x48, 0x00, 0x00, 0x00, 0xf4, 0xf7, 0xff, 0xff,
  0x08, 0x00, 0x00, 0x00, 0x14, 0x00, 0x00, 0x00, 0x01, 0x00, 0x00, 0x00,
  0x80, 0xff, 0xff, 0xff, 0xff, 0xff, 0xff, 0xff, 0x00, 0x00, 0x00, 0x00,
  0x01, 0x00, 0x00, 0x00, 0x79, 0xf5, 0x87, 0x3c, 0x1a, 0x00, 0x00, 0x00,
  0x73, 0x65, 0x71, 0x75, 0x65, 0x6e, 0x74, 0x69, 0x61, 0x6c, 0x2f, 0x66,
  0x6c, 0x61, 0x74, 0x74, 0x65, 0x6e, 0x2f, 0x52, 0x65, 0x73, 0x68, 0x61,
  0x70, 0x65, 0x00, 0x00, 0x02, 0x00, 0x00, 0x00, 0x01, 0x00, 0x00, 0x00,
  0x40, 0x03, 0x00, 0x00, 0x6a, 0xf8, 0xff, 0xff, 0x14, 0x00, 0x00, 0x00,
  0x34, 0x00, 0x00, 0x00, 0x0e, 0x00, 0x00, 0x00, 0x00, 0x00, 0x00, 0x09,
  0x50, 0x00, 0x00, 0x00, 0x5c, 0xf8, 0xff, 0xff, 0x08, 0x00, 0x00, 0x00,
  0x14, 0x00, 0x00, 0x00, 0x01, 0x00, 0x00, 0x00, 0x80, 0xff, 0xff, 0xff,
  0xff, 0xff, 0xff, 0xff, 0x00, 0x00, 0x00, 0x00, 0x01, 0x00, 0x00, 0x00,
  0x79, 0xf5, 0x87, 0x3c, 0x22, 0x00, 0x00, 0x00, 0x73, 0x65, 0x71, 0x75,
  0x65, 0x6e, 0x74, 0x69, 0x61, 0x6c, 0x2f, 0x6d, 0x61, 0x78, 0x5f, 0x70,
  0x6f, 0x6f, 0x6c, 0x69, 0x6e, 0x67, 0x32, 0x64, 0x5f, 0x31, 0x2f, 0x4d,
  0x61, 0x78, 0x50, 0x6f, 0x6f, 0x6c, 0x00, 0x00, 0x04, 0x00, 0x00, 0x00,
  0x01, 0x00, 0x00, 0x00, 0x0d, 0x00, 0x00, 0x00, 0x04, 0x00, 0x00, 0x00,
  0x10, 0x00, 0x00, 0x00, 0xe2, 0xf8, 0xff, 0xff, 0x14, 0x00, 0x00, 0x00,
  0x30, 0x00, 0x00, 0x00, 0x0d, 0x00, 0x00, 0x00, 0x00, 0x00, 0x00, 0x09,
  0x88, 0x00, 0x00, 0x00, 0xd4, 0xf8, 0xff, 0xff, 0x08, 0x00, 0x00, 0x00,
  0x10, 0x00, 0x00, 0x00, 0x01, 0x00, 0x00, 0x00, 0x80, 0xff, 0xff, 0xff,
  0xff, 0xff, 0xff, 0xff, 0x01, 0x00, 0x00, 0x00, 0x79, 0xf5, 0x87, 0x3c,
  0x5d, 0x00, 0x00, 0x00, 0x73, 0x65, 0x71, 0x75, 0x65, 0x6e, 0x74, 0x69,
  0x61, 0x6c, 0x2f, 0x63, 0x6f, 0x6e, 0x76, 0x32, 0x64, 0x5f, 0x31, 0x2f,
  0x52, 0x65, 0x6c, 0x75, 0x3b, 0x73, 0x65, 0x71, 0x75, 0x65, 0x6e, 0x74,
  0x69, 0x61, 0x6c, 0x2f, 0x63, 0x6f, 0x6e, 0x76, 0x32, 0x64, 0x5f, 0x31,
  0x2f, 0x42, 0x69, 0x61, 0x73, 0x41, 0x64, 0x64, 0x3b, 0x73, 0x65, 0x71,
  0x75, 0x65, 0x6e, 0x74, 0x69, 0x61, 0x6c, 0x2f, 0x63, 0x6f, 0x6e, 0x76,
  0x32, 0x64, 0x5f, 0x31, 0x2f, 0x43, 0x6f, 0x6e, 0x76, 0x32, 0x44, 0x3b,
  0x63, 0x6f, 0x6e, 0x76, 0x32, 0x64, 0x5f, 0x31, 0x2f, 0x62, 0x69, 0x61,
  0x73, 0x00, 0x00, 0x00, 0x04, 0x00, 0x00, 0x00, 0x01, 0x00, 0x00, 0x00,
  0x19, 0x00, 0x00, 0x00, 0x07, 0x00, 0x00, 0x00, 0x10, 0x00, 0x00, 0x00,
  0x92, 0xf9, 0xff, 0xff, 0x14, 0x00, 0x00, 0x00, 0x34, 0x00, 0x00, 0x00,
  0x0c, 0x00, 0x00, 0x00, 0x00, 0x00, 0x00, 0x09, 0x50, 0x00, 0x00, 0x00,
  0x84, 0xf9, 0xff, 0xff, 0x08, 0x00, 0x00, 0x00, 0x14, 0x00, 0x00, 0x00,
  0x01, 0x00, 0x00, 0x00, 0x80, 0xff, 0xff, 0xff, 0xff, 0xff, 0xff, 0xff,
  0x00, 0x00, 0x00, 0x00, 0x01, 0x00, 0x00, 0x00, 0x3f, 0xa4, 0x6d, 0x3c,
  0x20, 0x00, 0x00, 0x00, 0x73, 0x65, 0x71, 0x75, 0x65, 0x6e, 0x74, 0x69,
  0x61, 0x6c, 0x2f, 0x6d, 0x61, 0x78, 0x5f, 0x70, 0x6f, 0x6f, 0x6c, 0x69,
  0x6e, 0x67, 0x32, 0x64, 0x2f, 0x4d, 0x61, 0x78, 0x50, 0x6f, 0x6f, 0x6c,
  0x00, 0x00, 0x00, 0x00, 0x04, 0x00, 0x00, 0x00, 0x01, 0x00, 0x00, 0x00,
  0x19, 0x00, 0x00, 0x00, 0x07, 0x00, 0x00, 0x00, 0x08, 0x00, 0x00, 0x00,
  0x0a, 0xfa, 0xff, 0xff, 0x14, 0x00, 0x00, 0x00, 0x30, 0x00, 0x00, 0x00,
  0x0b, 0x00, 0x00, 0x00, 0x00, 0x00, 0x00, 0x09, 0x80, 0x00, 0x00, 0x00,
  0xfc, 0xf9, 0xff, 0xff, 0x08, 0x00, 0x00, 0x00, 0x10, 0x00, 0x00, 0x00,
  0x01, 0x00, 0x00, 0x00, 0x80, 0xff, 0xff, 0xff, 0xff, 0xff, 0xff, 0xff,
  0x01, 0x00, 0x00, 0x00, 0x3f, 0xa4, 0x6d, 0x3c, 0x55, 0x00, 0x00, 0x00,
  0x73, 0x65, 0x71, 0x75, 0x65, 0x6e, 0x74, 0x69, 0x61, 0x6c, 0x2f, 0x63,
  0x6f, 0x6e, 0x76, 0x32, 0x64, 0x2f, 0x52, 0x65, 0x6c, 0x75, 0x3b, 0x73,
  0x65, 0x71, 0x75, 0x65, 0x6e, 0x74, 0x69, 0x61, 0x6c, 0x2f, 0x63, 0x6f,
  0x6e, 0x76, 0x32, 0x64, 0x2f, 0x42, 0x69, 0x61, 0x73, 0x41, 0x64, 0x64,
  0x3b, 0x73, 0x65, 0x71, 0x75, 0x65, 0x6e, 0x74, 0x69, 0x61, 0x6c, 0x2f,
  0x63, 0x6f, 0x6e, 0x76, 0x32, 0x64, 0x2f, 0x43, 0x6f, 0x6e, 0x76, 0x32,
  0x44, 0x3b, 0x63, 0x6f, 0x6e, 0x76, 0x32, 0x64, 0x2f, 0x62, 0x69, 0x61,
  0x73, 0x00, 0x00, 0x00, 0x04, 0x00, 0x00, 0x00, 0x01, 0x00, 0x00, 0x00,
  0x31, 0x00, 0x00, 0x00, 0x0d, 0x00, 0x00, 0x00, 0x08, 0x00, 0x00, 0x00,
  0xb2, 0xfa, 0xff, 0xff, 0x14, 0x00, 0x00, 0x00, 0x34, 0x00, 0x00, 0x00,
  0x0a, 0x00, 0x00, 0x00, 0x00, 0x00, 0x00, 0x09, 0x48, 0x00, 0x00, 0x00,
  0xa4, 0xfa, 0xff, 0xff, 0x08, 0x00, 0x00, 0x00, 0x14, 0x00, 0x00, 0x00,
  0x01, 0x00, 0x00, 0x00, 0x03, 0x00, 0x00, 0x00, 0x00, 0x00, 0x00, 0x00,
  0x00, 0x00, 0x00, 0x00, 0x01, 0x00, 0x00, 0x00, 0xb0, 0xa9, 0x1e, 0x3d,
  0x1a, 0x00, 0x00, 0x00, 0x73, 0x65, 0x71, 0x75, 0x65, 0x6e, 0x74, 0x69,
  0x61, 0x6c, 0x2f, 0x72, 0x65, 0x73, 0x68, 0x61, 0x70, 0x65, 0x2f, 0x52,
  0x65, 0x73, 0x68, 0x61, 0x70, 0x65, 0x00, 0x00, 0x04, 0x00, 0x00, 0x00,
  0x01, 0x00, 0x00, 0x00, 0x31, 0x00, 0x00, 0x00, 0x0d, 0x00, 0x00, 0x00,
  0x01, 0x00, 0x00, 0x00, 0x22, 0xfb, 0xff, 0xff, 0x14, 0x00, 0x00, 0x00,
  0x30, 0x00, 0x00, 0x00, 0x09, 0x00, 0x00, 0x00, 0x00, 0x00, 0x00, 0x02,
  0x34, 0x00, 0x00, 0x00, 0x14, 0xfb, 0xff, 0xff, 0x08, 0x00, 0x00, 0x00,
  0x10, 0x00, 0x00, 0x00, 0x01, 0x00, 0x00, 0x00, 0x00, 0x00, 0x00, 0x00,
  0x00, 0x00, 0x00, 0x00, 0x01, 0x00, 0x00, 0x00, 0xf4, 0x98, 0x11, 0x39,
  0x0b, 0x00, 0x00, 0x00, 0x79, 0x5f, 0x70, 0x72, 0x65, 0x64, 0x2f, 0x62,
  0x69, 0x61, 0x73, 0x00, 0x01, 0x00, 0x00, 0x00, 0x03, 0x00, 0x00, 0x00,
  0x72, 0xfb, 0xff, 0xff, 0x14, 0x00, 0x00, 0x00, 0x34, 0x00, 0x00, 0x00,
  0x08, 0x00, 0x00, 0x00, 0x00, 0x00, 0x00, 0x09, 0x48, 0x00, 0x00, 0x00,
  0x64, 0xfb, 0xff, 0xff, 0x08, 0x00, 0x00, 0x00, 0x14, 0x00, 0x00, 0x00,
  0x01, 0x00, 0x00, 0x00, 0x00, 0x00, 0x00, 0x00, 0x00, 0x00, 0x00, 0x00,
  0x00, 0x00, 0x00, 0x00, 0x01, 0x00, 0x00, 0x00, 0x09, 0x13, 0x09, 0x3c,
  0x18, 0x00, 0x00, 0x00, 0x73, 0x65, 0x71, 0x75, 0x65, 0x6e, 0x74, 0x69,
  0x61, 0x6c, 0x2f, 0x79, 0x5f, 0x70, 0x72, 0x65, 0x64, 0x2f, 0x4d, 0x61,
  0x74, 0x4d, 0x75, 0x6c, 0x00, 0x00, 0x00, 0x00, 0x02, 0x00, 0x00, 0x00,
  0x03, 0x00, 0x00, 0x00, 0x40, 0x03, 0x00, 0x00, 0xda, 0xfb, 0xff, 0xff,
  0x14, 0x00, 0x00, 0x00, 0xe4, 0x00, 0x00, 0x00, 0x07, 0x00, 0x00, 0x00,
  0x00, 0x00, 0x00, 0x02, 0xec, 0x00, 0x00, 0x00, 0xcc, 0xfb, 0xff, 0xff,
  0x08, 0x00, 0x00, 0x00, 0x88, 0x00, 0x00, 0x00, 0x10, 0x00, 0x00, 0x00,
  0x00, 0x00, 0x00, 0x00, 0x00, 0x00, 0x00, 0x00, 0x00, 0x00, 0x00, 0x00,
  0x00, 0x00, 0x00, 0x00, 0x00, 0x00, 0x00, 0x00, 0x00, 0x00, 0x00, 0x00,
  0x00, 0x00, 0x00, 0x00, 0x00, 0x00, 0x00, 0x00, 0x00, 0x00, 0x00, 0x00,
  0x00, 0x00, 0x00, 0x00, 0x00, 0x00, 0x00, 0x00, 0x00, 0x00, 0x00, 0x00,
  0x00, 0x00, 0x00, 0x00, 0x00, 0x00, 0x00, 0x00, 0x00, 0x00, 0x00, 0x00,
  0x00, 0x00, 0x00, 0x00, 0x00, 0x00, 0x00, 0x00, 0x00, 0x00, 0x00, 0x00,
  0x00, 0x00, 0x00, 0x00, 0x00, 0x00, 0x00, 0x00, 0x00, 0x00, 0x00, 0x00,
  0x00, 0x00, 0x00, 0x00, 0x00, 0x00, 0x00, 0x00, 0x00, 0x00, 0x00, 0x00,
  0x00, 0x00, 0x00, 0x00, 0x00, 0x00, 0x00, 0x00, 0x00, 0x00, 0x00, 0x00,
  0x00, 0x00, 0x00, 0x00, 0x00, 0x00, 0x00, 0x00, 0x00, 0x00, 0x00, 0x00,
  0x00, 0x00, 0x00, 0x00, 0x00, 0x00, 0x00, 0x00, 0x10, 0x00, 0x00, 0x00,
  0x89, 0xd4, 0xc0, 0x38, 0xdc, 0x42, 0x9f, 0x38, 0x36, 0x3b, 0xd1, 0x38,
  0x53, 0xfd, 0xa1, 0x38, 0x07, 0xf5, 0xde, 0x38, 0xfe, 0x0c, 0xc7, 0x38,
  0xb4, 0x91, 0xaa, 0x38, 0x92, 0xe9, 0xce, 0x38, 0x2a, 0x4d, 0xb6, 0x38,
  0xbd, 0xbb, 0xb2, 0x38, 0xde, 0x2c, 0xc7, 0x38, 0x00, 0x99, 0xaf, 0x38,
  0xf6, 0x1f, 0xa6, 0x38, 0x7c, 0x24, 0xa3, 0x38, 0xa1, 0x0c, 0x9d, 0x38,
  0x05, 0x93, 0xc8, 0x38, 0x0d, 0x00, 0x00, 0x00, 0x63, 0x6f, 0x6e, 0x76,
  0x32, 0x64, 0x5f, 0x31, 0x2f, 0x62, 0x69, 0x61, 0x73, 0x00, 0x00, 0x00,
  0x01, 0x00, 0x00, 0x00, 0x10, 0x00, 0x00, 0x00, 0xe2, 0xfc, 0xff, 0xff,
  0x14, 0x00, 0x00, 0x00, 0xe4, 0x00, 0x00, 0x00, 0x06, 0x00, 0x00, 0x00,
  0x00, 0x00, 0x00, 0x09, 0xf8, 0x00, 0x00, 0x00, 0xd4, 0xfc, 0xff, 0xff,
  0x08, 0x00, 0x00, 0x00, 0x88, 0x00, 0x00, 0x00, 0x10, 0x00, 0x00, 0x00,
  0x00, 0x00, 0x00, 0x00, 0x00, 0x00, 0x00, 0x00, 0x00, 0x00, 0x00, 0x00,
  0x00, 0x00, 0x00, 0x00, 0x00, 0x00, 0x00, 0x00, 0x00, 0x00, 0x00, 0x00,
  0x00, 0x00, 0x00, 0x00, 0x00, 0x00, 0x00, 0x00, 0x00, 0x00, 0x00, 0x00,
  0x00, 0x00, 0x00, 0x00, 0x00, 0x00, 0x00, 0x00, 0x00, 0x00, 0x00, 0x00,
  0x00, 0x00, 0x00, 0x00, 0x00, 0x00, 0x00, 0x00, 0x00, 0x00, 0x00, 0x00,
  0x00, 0x00, 0x00, 0x00, 0x00, 0x00, 0x00, 0x00, 0x00, 0x00, 0x00, 0x00,
  0x00, 0x00, 0x00, 0x00, 0x00, 0x00, 0x00, 0x00, 0x00, 0x00, 0x00, 0x00,
  0x00, 0x00, 0x00, 0x00, 0x00, 0x00, 0x00, 0x00, 0x00, 0x00, 0x00, 0x00,
  0x00, 0x00, 0x00, 0x00, 0x00, 0x00, 0x00, 0x00, 0x00, 0x00, 0x00, 0x00,
  0x00, 0x00, 0x00, 0x00, 0x00, 0x00, 0x00, 0x00, 0x00, 0x00, 0x00, 0x00,
  0x00, 0x00, 0x00, 0x00, 0x00, 0x00, 0x00, 0x00, 0x10, 0x00, 0x00, 0x00,
  0x12, 0xba, 0xcf, 0x3b, 0x83, 0x90, 0xab, 0x3b, 0x1b, 0x65, 0xe1, 0x3b,
  0xef, 0x80, 0xae, 0x3b, 0x5f, 0x2e, 0xf0, 0x3b, 0x8d, 0x6d, 0xd6, 0x3b,
  0xfd, 0xbe, 0xb7, 0x3b, 0x9a, 0xe5, 0xde, 0x3b, 0x7a, 0x62, 0xc4, 0x3b,
  0x7c, 0x8a, 0xc0, 0x3b, 0xe3, 0x8f, 0xd6, 0x3b, 0xbc, 0x29, 0xbd, 0x3b,
  0x5a, 0xf5, 0xb2, 0x3b, 0xe6, 0xbe, 0xaf, 0x3b, 0x8a, 0x2e, 0xa9, 0x3b,
  0xb5, 0x11, 0xd8, 0x3b, 0x1a, 0x00, 0x00, 0x00, 0x73, 0x65, 0x71, 0x75,
  0x65, 0x6e, 0x74, 0x69, 0x61, 0x6c, 0x2f, 0x63, 0x6f, 0x6e, 0x76, 0x32,
  0x64, 0x5f, 0x31, 0x2f, 0x43, 0x6f, 0x6e, 0x76, 0x32, 0x44, 0x00, 0x00,
  0x04, 0x00, 0x00, 0x00, 0x10, 0x00, 0x00, 0x00, 0x03, 0x00, 0x00, 0x00,
  0x03, 0x00, 0x00, 0x00, 0x08, 0x00, 0x00, 0x00, 0x02, 0xfe, 0xff, 0xff,
  0x14, 0x00, 0x00, 0x00, 0x88, 0x00, 0x00, 0x00, 0x05, 0x00, 0x00, 0x00,
  0x00, 0x00, 0x00, 0x02, 0x8c, 0x00, 0x00, 0x00, 0xf4, 0xfd, 0xff, 0xff,
  0x08, 0x00, 0x00, 0x00, 0x4c, 0x00, 0x00, 0x00, 0x08, 0x00, 0x00, 0x00,
  0x00, 0x00, 0x00, 0x00, 0x00, 0x00, 0x00, 0x00, 0x00, 0x00, 0x00, 0x00,
  0x00, 0x00, 0x00, 0x00, 0x00, 0x00, 0x00, 0x00, 0x00, 0x00, 0x00, 0x00,
  0x00, 0x00, 0x00, 0x00, 0x00, 0x00, 0x00, 0x00, 0x00, 0x00, 0x00, 0x00,
  0x00, 0x00, 0x00, 0x00, 0x00, 0x00, 0x00, 0x00, 0x00, 0x00, 0x00, 0x00,
  0x00, 0x00, 0x00, 0x00, 0x00, 0x00, 0x00, 0x00, 0x00, 0x00, 0x00, 0x00,
  0x00, 0x00, 0x00, 0x00, 0x00, 0x00, 0x00, 0x00, 0x08, 0x00, 0x00, 0x00,
  0x65, 0x8b, 0x18, 0x39, 0xb6, 0xde, 0xbf, 0x38, 0x81, 0x7d, 0xe9, 0x38,
  0x9c, 0xbe, 0xbb, 0x38, 0xd2, 0x35, 0xc8, 0x38, 0xe5, 0xb9, 0x29, 0x39,
  0xac, 0x48, 0x10, 0x39, 0x42, 0x36, 0x23, 0x39, 0x0b, 0x00, 0x00, 0x00,
  0x63, 0x6f, 0x6e, 0x76, 0x32, 0x64, 0x2f, 0x62, 0x69, 0x61, 0x73, 0x00,
  0x01, 0x00, 0x00, 0x00, 0x08, 0x00, 0x00, 0x00, 0xaa, 0xfe, 0xff, 0xff,
  0x14, 0x00, 0x00, 0x00, 0x84, 0x00, 0x00, 0x00, 0x04, 0x00, 0x00, 0x00,
  0x00, 0x00, 0x00, 0x09, 0x98, 0x00, 0x00, 0x00, 0x9c, 0xfe, 0xff, 0xff,
  0x08, 0x00, 0x00, 0x00, 0x48, 0x00, 0x00, 0x00, 0x08, 0x00, 0x00, 0x00,
  0x00, 0x00, 0x00, 0x00, 0x00, 0x00, 0x00, 0x00, 0x00, 0x00, 0x00, 0x00,
  0x00, 0x00, 0x00, 0x00, 0x00, 0x00, 0x00, 0x00, 0x00, 0x00, 0x00, 0x00,
  0x00, 0x00, 0x00, 0x00, 0x00, 0x00, 0x00, 0x00, 0x00, 0x00, 0x00, 0x00,
  0x00, 0x00, 0x00, 0x00, 0x00, 0x00, 0x00, 0x00, 0x00, 0x00, 0x00, 0x00,
  0x00, 0x00, 0x00, 0x00, 0x00, 0x00, 0x00, 0x00, 0x00, 0x00, 0x00, 0x00,
  0x00, 0x00, 0x00, 0x00, 0x08, 0x00, 0x00, 0x00, 0xcf, 0x20, 0x76, 0x3b,
  0x22, 0xca, 0x1a, 0x3b, 0xce, 0x5d, 0x3c, 0x3b, 0x22, 0x76, 0x17, 0x3b,
  0x9e, 0x84, 0x21, 0x3b, 0xdc, 0xec, 0x88, 0x3b, 0xbd, 0xcc, 0x68, 0x3b,
  0x82, 0xab, 0x83, 0x3b, 0x18, 0x00, 0x00, 0x00, 0x73, 0x65, 0x71, 0x75,
  0x65, 0x6e, 0x74, 0x69, 0x61, 0x6c, 0x2f, 0x63, 0x6f, 0x6e, 0x76, 0x32,
  0x64, 0x2f, 0x43, 0x6f, 0x6e, 0x76, 0x32, 0x44, 0x00, 0x00, 0x00, 0x00,
  0x04, 0x00, 0x00, 0x00, 0x08, 0x00, 0x00, 0x00, 0x03, 0x00, 0x00, 0x00,
  0x03, 0x00, 0x00, 0x00, 0x01, 0x00, 0x00, 0x00, 0x6a, 0xff, 0xff, 0xff,
  0x14, 0x00, 0x00, 0x00, 0x14, 0x00, 0x00, 0x00, 0x03, 0x00, 0x00, 0x00,
  0x00, 0x00, 0x00, 0x02, 0x28, 0x00, 0x00, 0x00, 0xbc, 0xff, 0xff, 0xff,
  0x18, 0x00, 0x00, 0x00, 0x73, 0x65, 0x71, 0x75, 0x65, 0x6e, 0x74, 0x69,
  0x61, 0x6c, 0x2f, 0x66, 0x6c, 0x61, 0x74, 0x74, 0x65, 0x6e, 0x2f, 0x43,
  0x6f, 0x6e, 0x73, 0x74, 0x00, 0x00, 0x00, 0x00, 0x01, 0x00, 0x00, 0x00,
  0x02, 0x00, 0x00, 0x00, 0xae, 0xff, 0xff, 0xff, 0x18, 0x00, 0x00, 0x00,
  0x18, 0x00, 0x00, 0x00, 0x02, 0x00, 0x00, 0x00, 0x00, 0x00, 0x00, 0x02,
  0x34, 0x00, 0x00, 0x00, 0x04, 0x00, 0x04, 0x00, 0x04, 0x00, 0x00, 0x00,
  0x20, 0x00, 0x00, 0x00, 0x73, 0x65, 0x71, 0x75, 0x65, 0x6e, 0x74, 0x69,
  0x61, 0x6c, 0x2f, 0x72, 0x65, 0x73, 0x68, 0x61, 0x70, 0x65, 0x2f, 0x52,
  0x65, 0x73, 0x68, 0x61, 0x70, 0x65, 0x2f, 0x73, 0x68, 0x61, 0x70, 0x65,
  0x00, 0x00, 0x00, 0x00, 0x01, 0x00, 0x00, 0x00, 0x04, 0x00, 0x00, 0x00,
  0x00, 0x00, 0x0e, 0x00, 0x18, 0x00, 0x14, 0x00, 0x13, 0x00, 0x0c, 0x00,
  0x08, 0x00, 0x04, 0x00, 0x0e, 0x00, 0x00, 0x00, 0x20, 0x00, 0x00, 0x00,
  0x3c, 0x00, 0x00, 0x00, 0x01, 0x00, 0x00, 0x00, 0x00, 0x00, 0x00, 0x09,
  0x48, 0x00, 0x00, 0x00, 0x0c, 0x00, 0x0c, 0x00, 0x00, 0x00, 0x00, 0x00,
  0x08, 0x00, 0x04, 0x00, 0x0c, 0x00, 0x00, 0x00, 0x08, 0x00, 0x00, 0x00,
  0x10, 0x00, 0x00, 0x00, 0x01, 0x00, 0x00, 0x00, 0x03, 0x00, 0x00, 0x00,
  0x00, 0x00, 0x00, 0x00, 0x01, 0x00, 0x00, 0x00, 0xb0, 0xa9, 0x1e, 0x3d,
  0x13, 0x00, 0x00, 0x00, 0x73, 0x65, 0x72, 0x76, 0x69, 0x6e, 0x67, 0x5f,
  0x64, 0x65, 0x66, 0x61, 0x75, 0x6c, 0x74, 0x5f, 0x78, 0x3a, 0x30, 0x00,
  0x02, 0x00, 0x00, 0x00, 0x01, 0x00, 0x00, 0x00, 0x7d, 0x02, 0x00, 0x00,
  0x05, 0x00, 0x00, 0x00, 0x6c, 0x00, 0x00, 0x00, 0x4c, 0x00, 0x00, 0x00,
  0x2c, 0x00, 0x00, 0x00, 0x18, 0x00, 0x00, 0x00, 0x04, 0x00, 0x00, 0x00,
  0xd0, 0xff, 0xff, 0xff, 0x19, 0x00, 0x00, 0x00, 0x02, 0x00, 0x00, 0x00,
  0x00, 0x00, 0x00, 0x19, 0xe0, 0xff, 0xff, 0xff, 0x09, 0x00, 0x00, 0x00,
  0x04, 0x00, 0x00, 0x00, 0x00, 0x00, 0x00, 0x09, 0xf0, 0xff, 0xff, 0xff,
  0x11, 0x00, 0x00, 0x00, 0x02, 0x00, 0x00, 0x00, 0x00, 0x00, 0x00, 0x11,
  0x0c, 0x00, 0x10, 0x00, 0x0f, 0x00, 0x00, 0x00, 0x08, 0x00, 0x04, 0x00,
  0x0c, 0x00, 0x00, 0x00, 0x03, 0x00, 0x00, 0x00, 0x03, 0x00, 0x00, 0x00,
  0x00, 0x00, 0x00, 0x03, 0x0c, 0x00, 0x0c, 0x00, 0x0b, 0x00, 0x00, 0x00,
  0x00, 0x00, 0x04, 0x00, 0x0c, 0x00, 0x00, 0x00, 0x16, 0x00, 0x00, 0x00,
  0x00, 0x00, 0x00, 0x16
};
unsigned int trained_tflite_mic_len = 7528;

#endif // _EI_CLASSIFIER_TFLITE_TRAINED_H_

