/* Generated by Edge Impulse
 *
 * Permission is hereby granted, free of charge, to any person obtaining a copy
 * of this software and associated documentation files (the "Software"), to deal
 * in the Software without restriction, including without limitation the rights
 * to use, copy, modify, merge, publish, distribute, sublicense, and/or sell
 * copies of the Software, and to permit persons to whom the Software is
 * furnished to do so, subject to the following conditions:
 *
 * The above copyright notice and this permission notice shall be included in
 * all copies or substantial portions of the Software.
 *
 * THE SOFTWARE IS PROVIDED "AS IS", WITHOUT WARRANTY OF ANY KIND, EXPRESS OR
 * IMPLIED, INCLUDING BUT NOT LIMITED TO THE WARRANTIES OF MERCHANTABILITY,
 * FITNESS FOR A PARTICULAR PURPOSE AND NONINFRINGEMENT. IN NO EVENT SHALL THE
 * AUTHORS OR COPYRIGHT HOLDERS BE LIABLE FOR ANY CLAIM, DAMAGES OR OTHER
 * LIABILITY, WHETHER IN AN ACTION OF CONTRACT, TORT OR OTHERWISE, ARISING FROM,
 * OUT OF OR IN CONNECTION WITH THE SOFTWARE OR THE USE OR OTHER DEALINGS IN THE
 * SOFTWARE.
 */

#ifndef _EI_CLASSIFIER_TFLITE_TRAINED_ACC_H_
#define _EI_CLASSIFIER_TFLITE_TRAINED_ACC_H_

#define EI_CLASSIFIER_TFLITE_ARENA_SIZE     2598

#if defined __GNUC__
#define ALIGN(X) __attribute__((aligned(X)))
#elif defined _MSC_VER
#define ALIGN(X) __declspec(align(X))
#elif defined __TASKING__
#define ALIGN(X) __align(X)
#else
#define ALIGN(X)
#endif
ALIGN(16) const unsigned char trained_tflite_acc[] = {
  0x20, 0x00, 0x00, 0x00, 0x54, 0x46, 0x4c, 0x33, 0x00, 0x00, 0x00, 0x00,
  0x14, 0x00, 0x20, 0x00, 0x1c, 0x00, 0x18, 0x00, 0x14, 0x00, 0x10, 0x00,
  0x0c, 0x00, 0x00, 0x00, 0x08, 0x00, 0x04, 0x00, 0x14, 0x00, 0x00, 0x00,
  0x1c, 0x00, 0x00, 0x00, 0x8c, 0x00, 0x00, 0x00, 0xbc, 0x00, 0x00, 0x00,
  0x78, 0x05, 0x00, 0x00, 0x88, 0x05, 0x00, 0x00, 0xc8, 0x0b, 0x00, 0x00,
  0x03, 0x00, 0x00, 0x00, 0x01, 0x00, 0x00, 0x00, 0x10, 0x00, 0x00, 0x00,
  0x00, 0x00, 0x0a, 0x00, 0x10, 0x00, 0x0c, 0x00, 0x08, 0x00, 0x04, 0x00,
  0x0a, 0x00, 0x00, 0x00, 0x0c, 0x00, 0x00, 0x00, 0x1c, 0x00, 0x00, 0x00,
  0x3c, 0x00, 0x00, 0x00, 0x0f, 0x00, 0x00, 0x00, 0x73, 0x65, 0x72, 0x76,
  0x69, 0x6e, 0x67, 0x5f, 0x64, 0x65, 0x66, 0x61, 0x75, 0x6c, 0x74, 0x00,
  0x01, 0x00, 0x00, 0x00, 0x04, 0x00, 0x00, 0x00, 0xc4, 0xff, 0xff, 0xff,
  0x0a, 0x00, 0x00, 0x00, 0x04, 0x00, 0x00, 0x00, 0x08, 0x00, 0x00, 0x00,
  0x6f, 0x75, 0x74, 0x70, 0x75, 0x74, 0x5f, 0x30, 0x00, 0x00, 0x00, 0x00,
  0x01, 0x00, 0x00, 0x00, 0x04, 0x00, 0x00, 0x00, 0x6e, 0xfa, 0xff, 0xff,
  0x04, 0x00, 0x00, 0x00, 0x01, 0x00, 0x00, 0x00, 0x78, 0x00, 0x00, 0x00,
  0x01, 0x00, 0x00, 0x00, 0x0c, 0x00, 0x00, 0x00, 0x08, 0x00, 0x0c, 0x00,
  0x08, 0x00, 0x04, 0x00, 0x08, 0x00, 0x00, 0x00, 0x0c, 0x00, 0x00, 0x00,
  0x04, 0x00, 0x00, 0x00, 0x13, 0x00, 0x00, 0x00, 0x6d, 0x69, 0x6e, 0x5f,
  0x72, 0x75, 0x6e, 0x74, 0x69, 0x6d, 0x65, 0x5f, 0x76, 0x65, 0x72, 0x73,
  0x69, 0x6f, 0x6e, 0x00, 0x0d, 0x00, 0x00, 0x00, 0xb8, 0x04, 0x00, 0x00,
  0xb0, 0x04, 0x00, 0x00, 0x0c, 0x02, 0x00, 0x00, 0xac, 0x01, 0x00, 0x00,
  0xd4, 0x00, 0x00, 0x00, 0x9c, 0x00, 0x00, 0x00, 0x64, 0x00, 0x00, 0x00,
  0x44, 0x00, 0x00, 0x00, 0x3c, 0x00, 0x00, 0x00, 0x34, 0x00, 0x00, 0x00,
  0x2c, 0x00, 0x00, 0x00, 0x24, 0x00, 0x00, 0x00, 0x04, 0x00, 0x00, 0x00,
  0xea, 0xfa, 0xff, 0xff, 0x04, 0x00, 0x00, 0x00, 0x10, 0x00, 0x00, 0x00,
  0x31, 0x2e, 0x31, 0x34, 0x2e, 0x30, 0x00, 0x00, 0x00, 0x00, 0x00, 0x00,
  0x00, 0x00, 0x00, 0x00, 0xd4, 0xfa, 0xff, 0xff, 0xd8, 0xfa, 0xff, 0xff,
  0xdc, 0xfa, 0xff, 0xff, 0xe0, 0xfa, 0xff, 0xff, 0x16, 0xfb, 0xff, 0xff,
  0x04, 0x00, 0x00, 0x00, 0x10, 0x00, 0x00, 0x00, 0x87, 0xff, 0xff, 0xff,
  0x08, 0xff, 0xff, 0xff, 0x2e, 0x01, 0x00, 0x00, 0x0b, 0x01, 0x00, 0x00,
  0x32, 0xfb, 0xff, 0xff, 0x04, 0x00, 0x00, 0x00, 0x28, 0x00, 0x00, 0x00,
  0xdf, 0xf9, 0x0e, 0x3d, 0xe5, 0xd2, 0xbd, 0x27, 0xfd, 0x07, 0x34, 0xf5,
  0x4b, 0x2e, 0xdc, 0x1a, 0x3d, 0xcb, 0x33, 0x3b, 0xa4, 0xae, 0x87, 0x34,
  0x50, 0x1e, 0x10, 0xd8, 0x22, 0xb8, 0xac, 0x4b, 0x24, 0xdf, 0x11, 0xff,
  0xf8, 0xaf, 0xa8, 0x7f, 0x66, 0xfb, 0xff, 0xff, 0x04, 0x00, 0x00, 0x00,
  0x28, 0x00, 0x00, 0x00, 0xcc, 0xff, 0xff, 0xff, 0xc3, 0xff, 0xff, 0xff,
  0x21, 0x00, 0x00, 0x00, 0x07, 0x00, 0x00, 0x00, 0x92, 0x01, 0x00, 0x00,
  0xef, 0xff, 0xff, 0xff, 0xc4, 0xff, 0xff, 0xff, 0xa8, 0xff, 0xff, 0xff,
  0x93, 0xff, 0xff, 0xff, 0xe9, 0xff, 0xff, 0xff, 0x9a, 0xfb, 0xff, 0xff,
  0x04, 0x00, 0x00, 0x00, 0xc8, 0x00, 0x00, 0x00, 0xce, 0xfc, 0x10, 0x07,
  0x38, 0xd1, 0xe9, 0x0c, 0xc3, 0xc1, 0xe5, 0xd7, 0x3a, 0x34, 0xed, 0xfd,
  0xc1, 0x05, 0xe5, 0x04, 0xce, 0xfe, 0xd9, 0x17, 0x11, 0x00, 0x2d, 0xe0,
  0xe5, 0xcf, 0x06, 0xca, 0xeb, 0xe6, 0xcc, 0xc2, 0xe2, 0x29, 0x1a, 0xc1,
  0xeb, 0x3a, 0xe0, 0xd9, 0x24, 0x29, 0x30, 0xd2, 0x32, 0x2a, 0xca, 0x01,
  0x09, 0xc2, 0x0b, 0x0a, 0xea, 0x44, 0xd2, 0xf1, 0x0b, 0x2a, 0xc9, 0xf1,
  0xf3, 0x1c, 0x7f, 0x4c, 0x1c, 0xef, 0x49, 0x11, 0x02, 0xce, 0x08, 0x42,
  0x1b, 0x2b, 0x44, 0xd0, 0x34, 0xd7, 0xfc, 0xe6, 0xba, 0x68, 0xf6, 0x16,
  0xa9, 0x35, 0x27, 0xb3, 0xd9, 0x44, 0xeb, 0x46, 0x08, 0xa9, 0x6f, 0x32,
  0x47, 0x54, 0xaa, 0x0f, 0xcd, 0xe8, 0x37, 0xce, 0x25, 0xb9, 0xb2, 0x39,
  0xc4, 0x1a, 0xcb, 0x37, 0xd8, 0x17, 0xf7, 0x2d, 0x33, 0xe0, 0xf7, 0x38,
  0x28, 0xe7, 0x07, 0x1c, 0x18, 0x35, 0xd8, 0x23, 0xb5, 0xf5, 0xf5, 0xf6,
  0x17, 0xef, 0x18, 0xdb, 0xdf, 0x56, 0xc2, 0xc6, 0xf0, 0xe6, 0xe8, 0xdc,
  0x4b, 0x45, 0x45, 0x37, 0x04, 0xf3, 0x02, 0xd8, 0xe2, 0x15, 0xe3, 0x2b,
  0xd8, 0x50, 0xea, 0x24, 0x3d, 0xef, 0x67, 0xa8, 0xd9, 0xc0, 0x17, 0x27,
  0x39, 0x3b, 0xe3, 0x18, 0xc9, 0x4d, 0x2f, 0xf8, 0xd2, 0x1d, 0x38, 0x2c,
  0xd1, 0x3f, 0x1d, 0xce, 0x5d, 0xde, 0xe1, 0x34, 0xba, 0xe1, 0xbe, 0xfd,
  0x3f, 0x3c, 0xc4, 0x45, 0x6e, 0xfc, 0xff, 0xff, 0x04, 0x00, 0x00, 0x00,
  0x50, 0x00, 0x00, 0x00, 0xbf, 0x00, 0x00, 0x00, 0x41, 0x01, 0x00, 0x00,
  0x65, 0x00, 0x00, 0x00, 0x48, 0xff, 0xff, 0xff, 0xb7, 0xff, 0xff, 0xff,
  0x44, 0x01, 0x00, 0x00, 0x5f, 0x00, 0x00, 0x00, 0xb8, 0x00, 0x00, 0x00,
  0xc1, 0xff, 0xff, 0xff, 0x33, 0x00, 0x00, 0x00, 0xc7, 0x00, 0x00, 0x00,
  0xa1, 0xff, 0xff, 0xff, 0xba, 0xff, 0xff, 0xff, 0x9e, 0xff, 0xff, 0xff,
  0x49, 0x00, 0x00, 0x00, 0x8a, 0x00, 0x00, 0x00, 0x7e, 0xff, 0xff, 0xff,
  0xb9, 0xff, 0xff, 0xff, 0xb4, 0x01, 0x00, 0x00, 0x34, 0x00, 0x00, 0x00,
  0xca, 0xfc, 0xff, 0xff, 0x04, 0x00, 0x00, 0x00, 0x94, 0x02, 0x00, 0x00,
  0xd5, 0xe7, 0xbf, 0x1e, 0x05, 0x19, 0xd6, 0xdd, 0xce, 0x1a, 0x4b, 0xfa,
  0xe5, 0x25, 0x38, 0x54, 0x4e, 0xfa, 0x46, 0xe1, 0x4e, 0xc4, 0x57, 0x02,
  0xb3, 0xee, 0xcf, 0x2f, 0xf1, 0xf1, 0xde, 0xcc, 0x1c, 0xf5, 0x0f, 0x17,
  0xdf, 0x0e, 0x3c, 0x22, 0x31, 0xc1, 0x2a, 0x29, 0xef, 0xee, 0xd1, 0xea,
  0xf4, 0xf3, 0xce, 0x34, 0x23, 0xfe, 0xe4, 0xef, 0xa3, 0x44, 0xfa, 0x35,
  0x47, 0x0c, 0x38, 0x74, 0x7f, 0x08, 0x2a, 0xa0, 0xb7, 0x3a, 0x1e, 0x2f,
  0xdb, 0x0c, 0xf8, 0x21, 0xfb, 0x10, 0xc6, 0x0d, 0x30, 0xdd, 0xe6, 0x04,
  0x4e, 0xd0, 0x41, 0x04, 0xc9, 0xed, 0xd0, 0x32, 0x12, 0xe3, 0xfa, 0xd5,
  0xbc, 0x19, 0x88, 0xa7, 0xec, 0xd3, 0x0f, 0x07, 0x0c, 0xc8, 0x08, 0x09,
  0x3e, 0x06, 0xaf, 0x01, 0x1c, 0xf5, 0xcf, 0xe3, 0xea, 0x3f, 0x2b, 0xbc,
  0xda, 0x35, 0x03, 0xf1, 0x2f, 0xf2, 0xd6, 0x24, 0xfb, 0xee, 0x22, 0xf2,
  0xf9, 0x25, 0xdc, 0x26, 0x10, 0x39, 0xc3, 0xde, 0x07, 0x10, 0x11, 0xfc,
  0xff, 0xf4, 0xbd, 0xf7, 0xd7, 0xdb, 0x0b, 0x08, 0x07, 0xe2, 0xde, 0x17,
  0xf3, 0xd8, 0x37, 0x16, 0x3b, 0xf9, 0xfe, 0xd5, 0xda, 0x49, 0xcb, 0xd5,
  0x16, 0x21, 0x3d, 0x33, 0x38, 0x21, 0xe2, 0xf7, 0xfd, 0x3c, 0xe1, 0x53,
  0x31, 0xfc, 0x39, 0x4f, 0x5b, 0xf9, 0xd5, 0x0a, 0xd9, 0xa9, 0x3c, 0x2e,
  0x04, 0x48, 0x36, 0x33, 0x50, 0xf7, 0xc6, 0x3b, 0xeb, 0xff, 0xff, 0x27,
  0x26, 0x02, 0xf1, 0x3c, 0xe1, 0xc2, 0x9e, 0xbd, 0x5d, 0x2f, 0x0e, 0x3a,
  0x27, 0xfa, 0x21, 0x0e, 0x40, 0xb9, 0x1f, 0x06, 0xe1, 0x11, 0x19, 0xf4,
  0x2c, 0xf9, 0xe9, 0xf6, 0x2e, 0xdf, 0xe2, 0xb8, 0x35, 0xfc, 0xaf, 0x2b,
  0xba, 0x20, 0xe1, 0xd3, 0xf3, 0xcb, 0xec, 0xf2, 0xbc, 0xf7, 0xde, 0xdc,
  0xbb, 0xce, 0xdd, 0x07, 0xd5, 0x45, 0x29, 0x2d, 0x45, 0xd3, 0x4f, 0xd4,
  0x16, 0x11, 0x29, 0xb0, 0x23, 0x18, 0xdb, 0xe6, 0x15, 0xb8, 0xa6, 0x54,
  0x0b, 0x04, 0xb2, 0xd7, 0x0a, 0xf4, 0x31, 0x01, 0xfa, 0xee, 0xe5, 0xca,
  0xe8, 0x2a, 0xba, 0x0b, 0x3a, 0xfa, 0xdc, 0x13, 0xb9, 0xfb, 0x04, 0x13,
  0x16, 0xb5, 0xf1, 0xef, 0xda, 0x19, 0xe9, 0xf8, 0xd6, 0xe5, 0x0f, 0xf8,
  0xd5, 0x07, 0x34, 0x2f, 0xba, 0x21, 0xc7, 0xf9, 0x32, 0x3d, 0xbf, 0xdc,
  0xc7, 0x32, 0x1b, 0xb9, 0x04, 0xe7, 0xca, 0xbe, 0xdc, 0xbb, 0x31, 0xd7,
  0x06, 0xed, 0xf9, 0x1f, 0xf2, 0x27, 0x17, 0x56, 0xe4, 0xb7, 0xbe, 0x18,
  0xd6, 0xe4, 0xc4, 0xee, 0x49, 0xb4, 0xf1, 0x2d, 0xdf, 0x39, 0x29, 0xd6,
  0x55, 0x04, 0xca, 0x30, 0x16, 0x10, 0xe6, 0xfb, 0x39, 0x05, 0x25, 0x2c,
  0x36, 0xe4, 0x2a, 0xf9, 0xef, 0xc7, 0x15, 0xff, 0x1e, 0x2a, 0x28, 0x17,
  0xd9, 0xf5, 0xdf, 0x5c, 0xc3, 0xe8, 0x30, 0xce, 0x2a, 0xc3, 0x21, 0xd8,
  0x0d, 0x39, 0x15, 0xcc, 0x2b, 0xde, 0x08, 0xd5, 0xeb, 0x37, 0xef, 0xd6,
  0xcc, 0x41, 0x38, 0xb3, 0x1c, 0xf4, 0xb5, 0xea, 0xb8, 0xee, 0x41, 0xfb,
  0xcc, 0xf2, 0xc5, 0x10, 0x34, 0xe0, 0x2f, 0xe9, 0xeb, 0xf5, 0x1f, 0xf7,
  0x22, 0xfa, 0xdf, 0x14, 0xe3, 0x04, 0x27, 0x37, 0x2c, 0x2c, 0xdd, 0xf9,
  0x00, 0xc7, 0xcd, 0x06, 0x2b, 0xad, 0xd5, 0x1d, 0x0a, 0xb6, 0x35, 0x1d,
  0x03, 0x34, 0xd7, 0xb6, 0x46, 0x1e, 0xbe, 0xc2, 0x57, 0xcb, 0x10, 0xd6,
  0x13, 0x1c, 0xf6, 0xd5, 0xb4, 0xd6, 0xcc, 0x08, 0xf3, 0xe3, 0xc8, 0xcf,
  0xd0, 0xc5, 0xfe, 0x0d, 0xda, 0x11, 0x33, 0x02, 0xca, 0xf5, 0xe1, 0x03,
  0x0a, 0xfb, 0x2c, 0xd1, 0x58, 0xd2, 0x23, 0xf5, 0x43, 0xdb, 0xe6, 0xf5,
  0x49, 0xf0, 0x14, 0xea, 0xdd, 0x4f, 0xc7, 0xfa, 0x31, 0x2c, 0x2e, 0x0e,
  0xda, 0x28, 0xec, 0xe0, 0x05, 0x35, 0x24, 0x0d, 0x0d, 0xd5, 0xe1, 0xf9,
  0xb6, 0x39, 0x21, 0x15, 0x06, 0x09, 0x02, 0xe7, 0x01, 0x20, 0x0c, 0xa7,
  0xd0, 0xb9, 0xda, 0x2b, 0x3b, 0x2c, 0xcd, 0x01, 0xe7, 0xc8, 0xd2, 0x40,
  0x20, 0x0e, 0xe3, 0xfb, 0x3a, 0x35, 0xf8, 0xe5, 0xec, 0xd1, 0xfd, 0xc4,
  0xb9, 0x43, 0xe5, 0x0f, 0x3a, 0xe8, 0x12, 0x18, 0x11, 0xf8, 0xf2, 0xf1,
  0xf9, 0x17, 0x05, 0xe8, 0x4b, 0xd1, 0x03, 0x1d, 0xb3, 0x4a, 0xec, 0xc7,
  0x3f, 0x28, 0x25, 0x2a, 0x0e, 0x0e, 0xb4, 0xff, 0x20, 0x60, 0x41, 0x30,
  0x13, 0xe1, 0xe6, 0xfe, 0xce, 0xeb, 0x36, 0xd2, 0x12, 0x4b, 0xfd, 0x12,
  0xe6, 0x0c, 0x45, 0xce, 0x19, 0x7e, 0xab, 0xfa, 0x5a, 0x13, 0x2b, 0x15,
  0x4a, 0x3b, 0x68, 0x24, 0x15, 0x41, 0x39, 0x27, 0x13, 0x15, 0xd4, 0x55,
  0x4c, 0xf4, 0x4a, 0xfa, 0x02, 0x36, 0x21, 0x19, 0xc0, 0x14, 0xf5, 0xe5,
  0x1c, 0x31, 0xae, 0x40, 0x37, 0xfd, 0x3e, 0xbb, 0xb2, 0xae, 0xbc, 0x2e,
  0x38, 0xff, 0xff, 0xff, 0x3c, 0xff, 0xff, 0xff, 0x0f, 0x00, 0x00, 0x00,
  0x4d, 0x4c, 0x49, 0x52, 0x20, 0x43, 0x6f, 0x6e, 0x76, 0x65, 0x72, 0x74,
  0x65, 0x64, 0x2e, 0x00, 0x01, 0x00, 0x00, 0x00, 0x14, 0x00, 0x00, 0x00,
  0x00, 0x00, 0x0e, 0x00, 0x18, 0x00, 0x14, 0x00, 0x10, 0x00, 0x0c, 0x00,
  0x08, 0x00, 0x04, 0x00, 0x0e, 0x00, 0x00, 0x00, 0x14, 0x00, 0x00, 0x00,
  0x1c, 0x00, 0x00, 0x00, 0x28, 0x01, 0x00, 0x00, 0x2c, 0x01, 0x00, 0x00,
  0x30, 0x01, 0x00, 0x00, 0x04, 0x00, 0x00, 0x00, 0x6d, 0x61, 0x69, 0x6e,
  0x00, 0x00, 0x00, 0x00, 0x04, 0x00, 0x00, 0x00, 0xd0, 0x00, 0x00, 0x00,
  0x88, 0x00, 0x00, 0x00, 0x50, 0x00, 0x00, 0x00, 0x14, 0x00, 0x00, 0x00,
  0x00, 0x00, 0x0e, 0x00, 0x1a, 0x00, 0x14, 0x00, 0x10, 0x00, 0x0c, 0x00,
  0x0b, 0x00, 0x04, 0x00, 0x0e, 0x00, 0x00, 0x00, 0x1c, 0x00, 0x00, 0x00,
  0x00, 0x00, 0x00, 0x09, 0x1c, 0x00, 0x00, 0x00, 0x20, 0x00, 0x00, 0x00,
  0x01, 0x00, 0x00, 0x00, 0x00, 0x00, 0x06, 0x00, 0x08, 0x00, 0x04, 0x00,
  0x06, 0x00, 0x00, 0x00, 0x00, 0x00, 0x80, 0x3f, 0x01, 0x00, 0x00, 0x00,
  0x0a, 0x00, 0x00, 0x00, 0x01, 0x00, 0x00, 0x00, 0x09, 0x00, 0x00, 0x00,
  0x96, 0xff, 0xff, 0xff, 0x14, 0x00, 0x00, 0x00, 0x00, 0x00, 0x00, 0x08,
  0x10, 0x00, 0x00, 0x00, 0x14, 0x00, 0x00, 0x00, 0x04, 0x00, 0x04, 0x00,
  0x04, 0x00, 0x00, 0x00, 0x01, 0x00, 0x00, 0x00, 0x09, 0x00, 0x00, 0x00,
  0x03, 0x00, 0x00, 0x00, 0x08, 0x00, 0x00, 0x00, 0x05, 0x00, 0x00, 0x00,
  0x06, 0x00, 0x00, 0x00, 0xca, 0xff, 0xff, 0xff, 0x10, 0x00, 0x00, 0x00,
  0x00, 0x00, 0x00, 0x08, 0x10, 0x00, 0x00, 0x00, 0x14, 0x00, 0x00, 0x00,
  0xba, 0xff, 0xff, 0xff, 0x00, 0x00, 0x00, 0x01, 0x01, 0x00, 0x00, 0x00,
  0x08, 0x00, 0x00, 0x00, 0x03, 0x00, 0x00, 0x00, 0x07, 0x00, 0x00, 0x00,
  0x03, 0x00, 0x00, 0x00, 0x04, 0x00, 0x00, 0x00, 0x00, 0x00, 0x0e, 0x00,
  0x16, 0x00, 0x00, 0x00, 0x10, 0x00, 0x0c, 0x00, 0x0b, 0x00, 0x04, 0x00,
  0x0e, 0x00, 0x00, 0x00, 0x18, 0x00, 0x00, 0x00, 0x00, 0x00, 0x00, 0x08,
  0x18, 0x00, 0x00, 0x00, 0x1c, 0x00, 0x00, 0x00, 0x00, 0x00, 0x06, 0x00,
  0x08, 0x00, 0x07, 0x00, 0x06, 0x00, 0x00, 0x00, 0x00, 0x00, 0x00, 0x01,
  0x01, 0x00, 0x00, 0x00, 0x07, 0x00, 0x00, 0x00, 0x03, 0x00, 0x00, 0x00,
  0x00, 0x00, 0x00, 0x00, 0x01, 0x00, 0x00, 0x00, 0x02, 0x00, 0x00, 0x00,
  0x01, 0x00, 0x00, 0x00, 0x0a, 0x00, 0x00, 0x00, 0x01, 0x00, 0x00, 0x00,
  0x00, 0x00, 0x00, 0x00, 0x0b, 0x00, 0x00, 0x00, 0x78, 0x04, 0x00, 0x00,
  0x00, 0x04, 0x00, 0x00, 0xac, 0x03, 0x00, 0x00, 0x40, 0x03, 0x00, 0x00,
  0xe4, 0x02, 0x00, 0x00, 0x78, 0x02, 0x00, 0x00, 0x24, 0x02, 0x00, 0x00,
  0x90, 0x01, 0x00, 0x00, 0xf4, 0x00, 0x00, 0x00, 0x70, 0x00, 0x00, 0x00,
  0x04, 0x00, 0x00, 0x00, 0xc2, 0xfb, 0xff, 0xff, 0x14, 0x00, 0x00, 0x00,
  0x34, 0x00, 0x00, 0x00, 0x0b, 0x00, 0x00, 0x00, 0x00, 0x00, 0x00, 0x09,
  0x48, 0x00, 0x00, 0x00, 0xb4, 0xfb, 0xff, 0xff, 0x08, 0x00, 0x00, 0x00,
  0x14, 0x00, 0x00, 0x00, 0x01, 0x00, 0x00, 0x00, 0x80, 0xff, 0xff, 0xff,
  0xff, 0xff, 0xff, 0xff, 0x00, 0x00, 0x00, 0x00, 0x01, 0x00, 0x00, 0x00,
  0x00, 0x00, 0x80, 0x3b, 0x19, 0x00, 0x00, 0x00, 0x53, 0x74, 0x61, 0x74,
  0x65, 0x66, 0x75, 0x6c, 0x50, 0x61, 0x72, 0x74, 0x69, 0x74, 0x69, 0x6f,
  0x6e, 0x65, 0x64, 0x43, 0x61, 0x6c, 0x6c, 0x3a, 0x30, 0x00, 0x00, 0x00,
  0x02, 0x00, 0x00, 0x00, 0x01, 0x00, 0x00, 0x00, 0x04, 0x00, 0x00, 0x00,
  0x2a, 0xfc, 0xff, 0xff, 0x14, 0x00, 0x00, 0x00, 0x34, 0x00, 0x00, 0x00,
  0x0a, 0x00, 0x00, 0x00, 0x00, 0x00, 0x00, 0x09, 0x60, 0x00, 0x00, 0x00,
  0x1c, 0xfc, 0xff, 0xff, 0x08, 0x00, 0x00, 0x00, 0x14, 0x00, 0x00, 0x00,
  0x01, 0x00, 0x00, 0x00, 0xee, 0xff, 0xff, 0xff, 0xff, 0xff, 0xff, 0xff,
  0x00, 0x00, 0x00, 0x00, 0x01, 0x00, 0x00, 0x00, 0xf6, 0x03, 0xde, 0x3d,
  0x32, 0x00, 0x00, 0x00, 0x73, 0x65, 0x71, 0x75, 0x65, 0x6e, 0x74, 0x69,
  0x61, 0x6c, 0x2f, 0x79, 0x5f, 0x70, 0x72, 0x65, 0x64, 0x2f, 0x4d, 0x61,
  0x74, 0x4d, 0x75, 0x6c, 0x3b, 0x73, 0x65, 0x71, 0x75, 0x65, 0x6e, 0x74,
  0x69, 0x61, 0x6c, 0x2f, 0x79, 0x5f, 0x70, 0x72, 0x65, 0x64, 0x2f, 0x42,
  0x69, 0x61, 0x73, 0x41, 0x64, 0x64, 0x00, 0x00, 0x02, 0x00, 0x00, 0x00,
  0x01, 0x00, 0x00, 0x00, 0x04, 0x00, 0x00, 0x00, 0xaa, 0xfc, 0xff, 0xff,
  0x14, 0x00, 0x00, 0x00, 0x30, 0x00, 0x00, 0x00, 0x09, 0x00, 0x00, 0x00,
  0x00, 0x00, 0x00, 0x09, 0x78, 0x00, 0x00, 0x00, 0x9c, 0xfc, 0xff, 0xff,
  0x08, 0x00, 0x00, 0x00, 0x10, 0x00, 0x00, 0x00, 0x01, 0x00, 0x00, 0x00,
  0x80, 0xff, 0xff, 0xff, 0xff, 0xff, 0xff, 0xff, 0x01, 0x00, 0x00, 0x00,
  0xd9, 0xa1, 0x9f, 0x3d, 0x4c, 0x00, 0x00, 0x00, 0x73, 0x65, 0x71, 0x75,
  0x65, 0x6e, 0x74, 0x69, 0x61, 0x6c, 0x2f, 0x64, 0x65, 0x6e, 0x73, 0x65,
  0x5f, 0x31, 0x2f, 0x4d, 0x61, 0x74, 0x4d, 0x75, 0x6c, 0x3b, 0x73, 0x65,
  0x71, 0x75, 0x65, 0x6e, 0x74, 0x69, 0x61, 0x6c, 0x2f, 0x64, 0x65, 0x6e,
  0x73, 0x65, 0x5f, 0x31, 0x2f, 0x52, 0x65, 0x6c, 0x75, 0x3b, 0x73, 0x65,
  0x71, 0x75, 0x65, 0x6e, 0x74, 0x69, 0x61, 0x6c, 0x2f, 0x64, 0x65, 0x6e,
  0x73, 0x65, 0x5f, 0x31, 0x2f, 0x42, 0x69, 0x61, 0x73, 0x41, 0x64, 0x64,
  0x00, 0x00, 0x00, 0x00, 0x02, 0x00, 0x00, 0x00, 0x01, 0x00, 0x00, 0x00,
  0x0a, 0x00, 0x00, 0x00, 0x42, 0xfd, 0xff, 0xff, 0x14, 0x00, 0x00, 0x00,
  0x30, 0x00, 0x00, 0x00, 0x08, 0x00, 0x00, 0x00, 0x00, 0x00, 0x00, 0x09,
  0x70, 0x00, 0x00, 0x00, 0x34, 0xfd, 0xff, 0xff, 0x08, 0x00, 0x00, 0x00,
  0x10, 0x00, 0x00, 0x00, 0x01, 0x00, 0x00, 0x00, 0x80, 0xff, 0xff, 0xff,
  0xff, 0xff, 0xff, 0xff, 0x01, 0x00, 0x00, 0x00, 0xf3, 0x3e, 0xb1, 0x3d,
  0x46, 0x00, 0x00, 0x00, 0x73, 0x65, 0x71, 0x75, 0x65, 0x6e, 0x74, 0x69,
  0x61, 0x6c, 0x2f, 0x64, 0x65, 0x6e, 0x73, 0x65, 0x2f, 0x4d, 0x61, 0x74,
  0x4d, 0x75, 0x6c, 0x3b, 0x73, 0x65, 0x71, 0x75, 0x65, 0x6e, 0x74, 0x69,
  0x61, 0x6c, 0x2f, 0x64, 0x65, 0x6e, 0x73, 0x65, 0x2f, 0x52, 0x65, 0x6c,
  0x75, 0x3b, 0x73, 0x65, 0x71, 0x75, 0x65, 0x6e, 0x74, 0x69, 0x61, 0x6c,
  0x2f, 0x64, 0x65, 0x6e, 0x73, 0x65, 0x2f, 0x42, 0x69, 0x61, 0x73, 0x41,
  0x64, 0x64, 0x00, 0x00, 0x02, 0x00, 0x00, 0x00, 0x01, 0x00, 0x00, 0x00,
  0x14, 0x00, 0x00, 0x00, 0xd2, 0xfd, 0xff, 0xff, 0x14, 0x00, 0x00, 0x00,
  0x30, 0x00, 0x00, 0x00, 0x07, 0x00, 0x00, 0x00, 0x00, 0x00, 0x00, 0x02,
  0x34, 0x00, 0x00, 0x00, 0xc4, 0xfd, 0xff, 0xff, 0x08, 0x00, 0x00, 0x00,
  0x10, 0x00, 0x00, 0x00, 0x01, 0x00, 0x00, 0x00, 0x00, 0x00, 0x00, 0x00,
  0x00, 0x00, 0x00, 0x00, 0x01, 0x00, 0x00, 0x00, 0x65, 0xd1, 0x0a, 0x3a,
  0x0b, 0x00, 0x00, 0x00, 0x79, 0x5f, 0x70, 0x72, 0x65, 0x64, 0x2f, 0x62,
  0x69, 0x61, 0x73, 0x00, 0x01, 0x00, 0x00, 0x00, 0x04, 0x00, 0x00, 0x00,
  0x22, 0xfe, 0xff, 0xff, 0x14, 0x00, 0x00, 0x00, 0x34, 0x00, 0x00, 0x00,
  0x06, 0x00, 0x00, 0x00, 0x00, 0x00, 0x00, 0x09, 0x48, 0x00, 0x00, 0x00,
  0x14, 0xfe, 0xff, 0xff, 0x08, 0x00, 0x00, 0x00, 0x14, 0x00, 0x00, 0x00,
  0x01, 0x00, 0x00, 0x00, 0x00, 0x00, 0x00, 0x00, 0x00, 0x00, 0x00, 0x00,
  0x00, 0x00, 0x00, 0x00, 0x01, 0x00, 0x00, 0x00, 0xd5, 0x9e, 0xde, 0x3b,
  0x18, 0x00, 0x00, 0x00, 0x73, 0x65, 0x71, 0x75, 0x65, 0x6e, 0x74, 0x69,
  0x61, 0x6c, 0x2f, 0x79, 0x5f, 0x70, 0x72, 0x65, 0x64, 0x2f, 0x4d, 0x61,
  0x74, 0x4d, 0x75, 0x6c, 0x00, 0x00, 0x00, 0x00, 0x02, 0x00, 0x00, 0x00,
  0x04, 0x00, 0x00, 0x00, 0x0a, 0x00, 0x00, 0x00, 0x8a, 0xfe, 0xff, 0xff,
  0x14, 0x00, 0x00, 0x00, 0x34, 0x00, 0x00, 0x00, 0x05, 0x00, 0x00, 0x00,
  0x00, 0x00, 0x00, 0x02, 0x3c, 0x00, 0x00, 0x00, 0x7c, 0xfe, 0xff, 0xff,
  0x08, 0x00, 0x00, 0x00, 0x14, 0x00, 0x00, 0x00, 0x01, 0x00, 0x00, 0x00,
  0x00, 0x00, 0x00, 0x00, 0x00, 0x00, 0x00, 0x00, 0x00, 0x00, 0x00, 0x00,
  0x01, 0x00, 0x00, 0x00, 0xed, 0x7c, 0x0c, 0x3a, 0x0c, 0x00, 0x00, 0x00,
  0x64, 0x65, 0x6e, 0x73, 0x65, 0x5f, 0x31, 0x2f, 0x62, 0x69, 0x61, 0x73,
  0x00, 0x00, 0x00, 0x00, 0x01, 0x00, 0x00, 0x00, 0x0a, 0x00, 0x00, 0x00,
  0xe2, 0xfe, 0xff, 0xff, 0x14, 0x00, 0x00, 0x00, 0x34, 0x00, 0x00, 0x00,
  0x04, 0x00, 0x00, 0x00, 0x00, 0x00, 0x00, 0x09, 0x48, 0x00, 0x00, 0x00,
  0xd4, 0xfe, 0xff, 0xff, 0x08, 0x00, 0x00, 0x00, 0x14, 0x00, 0x00, 0x00,
  0x01, 0x00, 0x00, 0x00, 0x00, 0x00, 0x00, 0x00, 0x00, 0x00, 0x00, 0x00,
  0x00, 0x00, 0x00, 0x00, 0x01, 0x00, 0x00, 0x00, 0xe8, 0xe8, 0xca, 0x3b,
  0x19, 0x00, 0x00, 0x00, 0x73, 0x65, 0x71, 0x75, 0x65, 0x6e, 0x74, 0x69,
  0x61, 0x6c, 0x2f, 0x64, 0x65, 0x6e, 0x73, 0x65, 0x5f, 0x31, 0x2f, 0x4d,
  0x61, 0x74, 0x4d, 0x75, 0x6c, 0x00, 0x00, 0x00, 0x02, 0x00, 0x00, 0x00,
  0x0a, 0x00, 0x00, 0x00, 0x14, 0x00, 0x00, 0x00, 0x4a, 0xff, 0xff, 0xff,
  0x14, 0x00, 0x00, 0x00, 0x30, 0x00, 0x00, 0x00, 0x03, 0x00, 0x00, 0x00,
  0x00, 0x00, 0x00, 0x02, 0x34, 0x00, 0x00, 0x00, 0x3c, 0xff, 0xff, 0xff,
  0x08, 0x00, 0x00, 0x00, 0x10, 0x00, 0x00, 0x00, 0x01, 0x00, 0x00, 0x00,
  0x00, 0x00, 0x00, 0x00, 0x00, 0x00, 0x00, 0x00, 0x01, 0x00, 0x00, 0x00,
  0x00, 0xb5, 0xf5, 0x39, 0x0a, 0x00, 0x00, 0x00, 0x64, 0x65, 0x6e, 0x73,
  0x65, 0x2f, 0x62, 0x69, 0x61, 0x73, 0x00, 0x00, 0x01, 0x00, 0x00, 0x00,
  0x14, 0x00, 0x00, 0x00, 0x9a, 0xff, 0xff, 0xff, 0x14, 0x00, 0x00, 0x00,
  0x34, 0x00, 0x00, 0x00, 0x02, 0x00, 0x00, 0x00, 0x00, 0x00, 0x00, 0x09,
  0x44, 0x00, 0x00, 0x00, 0x8c, 0xff, 0xff, 0xff, 0x08, 0x00, 0x00, 0x00,
  0x14, 0x00, 0x00, 0x00, 0x01, 0x00, 0x00, 0x00, 0x00, 0x00, 0x00, 0x00,
  0x00, 0x00, 0x00, 0x00, 0x00, 0x00, 0x00, 0x00, 0x01, 0x00, 0x00, 0x00,
  0x2b, 0xeb, 0x97, 0x3b, 0x17, 0x00, 0x00, 0x00, 0x73, 0x65, 0x71, 0x75,
  0x65, 0x6e, 0x74, 0x69, 0x61, 0x6c, 0x2f, 0x64, 0x65, 0x6e, 0x73, 0x65,
  0x2f, 0x4d, 0x61, 0x74, 0x4d, 0x75, 0x6c, 0x00, 0x02, 0x00, 0x00, 0x00,
  0x14, 0x00, 0x00, 0x00, 0x21, 0x00, 0x00, 0x00, 0x00, 0x00, 0x0e, 0x00,
  0x18, 0x00, 0x14, 0x00, 0x13, 0x00, 0x0c, 0x00, 0x08, 0x00, 0x04, 0x00,
  0x0e, 0x00, 0x00, 0x00, 0x20, 0x00, 0x00, 0x00, 0x40, 0x00, 0x00, 0x00,
  0x01, 0x00, 0x00, 0x00, 0x00, 0x00, 0x00, 0x09, 0x4c, 0x00, 0x00, 0x00,
  0x0c, 0x00, 0x0c, 0x00, 0x00, 0x00, 0x00, 0x00, 0x08, 0x00, 0x04, 0x00,
  0x0c, 0x00, 0x00, 0x00, 0x08, 0x00, 0x00, 0x00, 0x14, 0x00, 0x00, 0x00,
  0x01, 0x00, 0x00, 0x00, 0xb8, 0xff, 0xff, 0xff, 0xff, 0xff, 0xff, 0xff,
  0x00, 0x00, 0x00, 0x00, 0x01, 0x00, 0x00, 0x00, 0xa3, 0x05, 0xcf, 0x3d,
  0x13, 0x00, 0x00, 0x00, 0x73, 0x65, 0x72, 0x76, 0x69, 0x6e, 0x67, 0x5f,
  0x64, 0x65, 0x66, 0x61, 0x75, 0x6c, 0x74, 0x5f, 0x78, 0x3a, 0x30, 0x00,
  0x02, 0x00, 0x00, 0x00, 0x01, 0x00, 0x00, 0x00, 0x21, 0x00, 0x00, 0x00,
  0x02, 0x00, 0x00, 0x00, 0x24, 0x00, 0x00, 0x00, 0x04, 0x00, 0x00, 0x00,
  0xf0, 0xff, 0xff, 0xff, 0x19, 0x00, 0x00, 0x00, 0x02, 0x00, 0x00, 0x00,
  0x00, 0x00, 0x00, 0x19, 0x0c, 0x00, 0x10, 0x00, 0x0f, 0x00, 0x00, 0x00,
  0x08, 0x00, 0x04, 0x00, 0x0c, 0x00, 0x00, 0x00, 0x09, 0x00, 0x00, 0x00,
  0x04, 0x00, 0x00, 0x00, 0x00, 0x00, 0x00, 0x09
};
unsigned int trained_tflite_acc_len = 3128;

#endif // _EI_CLASSIFIER_TFLITE_TRAINED_H_

